{
  "version": "1.0",
  "truncation": null,
  "padding": null,
  "added_tokens": [
    {
      "id": 0,
      "content": "<|endoftext|>",
      "single_word": false,
      "lstrip": false,
      "rstrip": false,
      "normalized": false,
      "special": true
    },
    {
      "id": 1,
      "content": "<|im_start|>",
      "single_word": false,
      "lstrip": false,
      "rstrip": false,
      "normalized": false,
      "special": true
    },
    {
      "id": 2,
      "content": "<|im_end|>",
      "single_word": false,
      "lstrip": false,
      "rstrip": false,
      "normalized": false,
      "special": true
    },
    {
      "id": 3,
      "content": "<|object_ref_start|>",
      "single_word": false,
      "lstrip": false,
      "rstrip": false,
      "normalized": false,
      "special": true
    },
    {
      "id": 4,
      "content": "<|object_ref_end|>",
      "single_word": false,
      "lstrip": false,
      "rstrip": false,
      "normalized": false,
      "special": true
    },
    {
      "id": 5,
      "content": "<|box_start|>",
      "single_word": false,
      "lstrip": false,
      "rstrip": false,
      "normalized": false,
      "special": true
    },
    {
      "id": 6,
      "content": "<|box_end|>",
      "single_word": false,
      "lstrip": false,
      "rstrip": false,
      "normalized": false,
      "special": true
    },
    {
      "id": 7,
      "content": "<|quad_start|>",
      "single_word": false,
      "lstrip": false,
      "rstrip": false,
      "normalized": false,
      "special": true
    },
    {
      "id": 8,
      "content": "<|quad_end|>",
      "single_word": false,
      "lstrip": false,
      "rstrip": false,
      "normalized": false,
      "special": true
    },
    {
      "id": 9,
      "content": "<|vision_start|>",
      "single_word": false,
      "lstrip": false,
      "rstrip": false,
      "normalized": false,
      "special": true
    },
    {
      "id": 10,
      "content": "<|vision_end|>",
      "single_word": false,
      "lstrip": false,
      "rstrip": false,
      "normalized": false,
      "special": true
    },
    {
      "id": 11,
      "content": "<|vision_pad|>",
      "single_word": false,
      "lstrip": false,
      "rstrip": false,
      "normalized": false,
      "special": true
    },
    {
      "id": 12,
      "content": "<|image_pad|>",
      "single_word": false,
      "lstrip": false,
      "rstrip": false,
      "normalized": false,
      "special": true
    },
    {
      "id": 13,
      "content": "<|video_pad|>",
      "single_word": false,
      "lstrip": false,
      "rstrip": false,
      "normalized": false,
      "special": true
    },
    {
      "id": 14,
      "content": "<|audio_start|>",
      "single_word": false,
      "lstrip": false,
      "rstrip": false,
      "normalized": false,
      "special": true
    },
    {
      "id": 15,
      "content": "<|audio_end|>",
      "single_word": false,
      "lstrip": false,
      "rstrip": false,
      "normalized": false,
      "special": true
    },
    {
      "id": 16,
      "content": "<|audio_pad|>",
      "single_word": false,
      "lstrip": false,
      "rstrip": false,
      "normalized": false,
      "special": true
    },
    {
      "id": 17,
      "content": "<tts_pad>",
      "single_word": false,
      "lstrip": false,
      "rstrip": false,
      "normalized": false,
      "special": true
    },
    {
      "id": 18,
      "content": "<tts_text_bos>",
      "single_word": false,
      "lstrip": false,
      "rstrip": false,
      "normalized": false,
      "special": true
    },
    {
      "id": 19,
      "content": "<tts_text_eod>",
      "single_word": false,
      "lstrip": false,
      "rstrip": false,
      "normalized": false,
      "special": true
    },
    {
      "id": 20,
      "content": "<tts_text_bos_single>",
      "single_word": false,
      "lstrip": false,
      "rstrip": false,
      "normalized": false,
      "special": true
    },
    {
      "id": 21,
      "content": "<tool_call>",
      "single_word": false,
      "lstrip": false,
      "rstrip": false,
      "normalized": false,
      "special": true
    },
    {
      "id": 22,
      "content": "</tool_call>",
      "single_word": false,
      "lstrip": false,
      "rstrip": false,
      "normalized": false,
      "special": true
    },
    {
      "id": 23,
      "content": "<tool_response>",
      "single_word": false,
      "lstrip": false,
      "rstrip": false,
      "normalized": false,
      "special": true
    },
    {
      "id": 24,
      "content": "</tool_response>",
      "single_word": false,
      "lstrip": false,
      "rstrip": false,
      "normalized": false,
      "special": true
    },
    {
      "id": 25,
      "content": "<think>",
      "single_word": false,
      "lstrip": false,
      "rstrip": false,
      "normalized": false,
      "special": true
    },
    {
      "id": 26,
      "content": "</think>",
      "single_word": false,
      "lstrip": false,
      "rstrip": false,
      "normalized": false,
      "special": true
    },
    {
      "id": 27,
      "content": "<|buffer1|>",
      "single_word": false,
      "lstrip": false,
      "rstrip": false,
      "normalized": false,
      "special": true
    },
    {
      "id": 28,
      "content": "<|buffer2|>",
      "single_word": false,
      "lstrip": false,
      "rstrip": false,
      "normalized": false,
      "special": true
    },
    {
      "id": 29,
      "content": "<|buffer3|>",
      "single_word": false,
      "lstrip": false,
      "rstrip": false,
      "normalized": false,
      "special": true
    },
    {
      "id": 30,
      "content": "<|buffer4|>",
      "single_word": false,
      "lstrip": false,
      "rstrip": false,
      "normalized": false,
      "special": true
    },
    {
      "id": 31,
      "content": "<|buffer5|>",
      "single_word": false,
      "lstrip": false,
      "rstrip": false,
      "normalized": false,
      "special": true
    },
    {
      "id": 32,
      "content": "<|buffer6|>",
      "single_word": false,
      "lstrip": false,
      "rstrip": false,
      "normalized": false,
      "special": true
    },
    {
      "id": 33,
      "content": "<|buffer7|>",
      "single_word": false,
      "lstrip": false,
      "rstrip": false,
      "normalized": false,
      "special": true
    },
    {
      "id": 34,
      "content": "<|buffer8|>",
      "single_word": false,
      "lstrip": false,
      "rstrip": false,
      "normalized": false,
      "special": true
    },
    {
      "id": 35,
      "content": "<|buffer9|>",
      "single_word": false,
      "lstrip": false,
      "rstrip": false,
      "normalized": false,
      "special": true
    }
  ],
  "normalizer": null,
  "pre_tokenizer": {
    "type": "ByteLevel",
    "add_prefix_space": false,
    "trim_offsets": true,
    "use_regex": true
  },
  "post_processor": null,
  "decoder": {
    "type": "ByteLevel",
    "add_prefix_space": true,
    "trim_offsets": true,
    "use_regex": true
  },
  "model": {
    "type": "BPE",
    "dropout": null,
    "unk_token": null,
    "continuing_subword_prefix": null,
    "end_of_word_suffix": null,
    "fuse_unk": false,
    "byte_fallback": false,
    "ignore_merges": false,
    "vocab": {
      "<|endoftext|>": 0,
      "<|im_start|>": 1,
      "<|im_end|>": 2,
      "<|object_ref_start|>": 3,
      "<|object_ref_end|>": 4,
      "<|box_start|>": 5,
      "<|box_end|>": 6,
      "<|quad_start|>": 7,
      "<|quad_end|>": 8,
      "<|vision_start|>": 9,
      "<|vision_end|>": 10,
      "<|vision_pad|>": 11,
      "<|image_pad|>": 12,
      "<|video_pad|>": 13,
      "<|audio_start|>": 14,
      "<|audio_end|>": 15,
      "<|audio_pad|>": 16,
      "<tts_pad>": 17,
      "<tts_text_bos>": 18,
      "<tts_text_eod>": 19,
      "<tts_text_bos_single>": 20,
      "<tool_call>": 21,
      "</tool_call>": 22,
      "<tool_response>": 23,
      "</tool_response>": 24,
      "<think>": 25,
      "</think>": 26,
      "<|buffer1|>": 27,
      "<|buffer2|>": 28,
      "<|buffer3|>": 29,
      "<|buffer4|>": 30,
      "<|buffer5|>": 31,
      "<|buffer6|>": 32,
      "<|buffer7|>": 33,
      "<|buffer8|>": 34,
      "<|buffer9|>": 35,
      "!": 36,
      "\"": 37,
      "#": 38,
      "$": 39,
      "%": 40,
      "&": 41,
      "'": 42,
      "(": 43,
      ")": 44,
      "*": 45,
      "+": 46,
      ",": 47,
      "-": 48,
      ".": 49,
      "/": 50,
      "0": 51,
      "1": 52,
      "2": 53,
      "3": 54,
      "4": 55,
      "5": 56,
      "6": 57,
      "7": 58,
      "8": 59,
      "9": 60,
      ":": 61,
      ";": 62,
      "<": 63,
      "=": 64,
      ">": 65,
      "?": 66,
      "@": 67,
      "A": 68,
      "B": 69,
      "C": 70,
      "D": 71,
      "E": 72,
      "F": 73,
      "G": 74,
      "H": 75,
      "I": 76,
      "J": 77,
      "K": 78,
      "L": 79,
      "M": 80,
      "N": 81,
      "O": 82,
      "P": 83,
      "Q": 84,
      "R": 85,
      "S": 86,
      "T": 87,
      "U": 88,
      "V": 89,
      "W": 90,
      "X": 91,
      "Y": 92,
      "Z": 93,
      "[": 94,
      "\\": 95,
      "]": 96,
      "^": 97,
      "_": 98,
      "`": 99,
      "a": 100,
      "b": 101,
      "c": 102,
      "d": 103,
      "e": 104,
      "f": 105,
      "g": 106,
      "h": 107,
      "i": 108,
      "j": 109,
      "k": 110,
      "l": 111,
      "m": 112,
      "n": 113,
      "o": 114,
      "p": 115,
      "q": 116,
      "r": 117,
      "s": 118,
      "t": 119,
      "u": 120,
      "v": 121,
      "w": 122,
      "x": 123,
      "y": 124,
      "z": 125,
      "{": 126,
      "|": 127,
      "}": 128,
      "~": 129,
      "¡": 130,
      "¢": 131,
      "£": 132,
      "¤": 133,
      "¥": 134,
      "¦": 135,
      "§": 136,
      "¨": 137,
      "©": 138,
      "ª": 139,
      "«": 140,
      "¬": 141,
      "®": 142,
      "¯": 143,
      "°": 144,
      "±": 145,
      "²": 146,
      "³": 147,
      "´": 148,
      "µ": 149,
      "¶": 150,
      "·": 151,
      "¸": 152,
      "¹": 153,
      "º": 154,
      "»": 155,
      "¼": 156,
      "½": 157,
      "¾": 158,
      "¿": 159,
      "À": 160,
      "Á": 161,
      "Â": 162,
      "Ã": 163,
      "Ä": 164,
      "Å": 165,
      "Æ": 166,
      "Ç": 167,
      "È": 168,
      "É": 169,
      "Ê": 170,
      "Ë": 171,
      "Ì": 172,
      "Í": 173,
      "Î": 174,
      "Ï": 175,
      "Ð": 176,
      "Ñ": 177,
      "Ò": 178,
      "Ó": 179,
      "Ô": 180,
      "Õ": 181,
      "Ö": 182,
      "×": 183,
      "Ø": 184,
      "Ù": 185,
      "Ú": 186,
      "Û": 187,
      "Ü": 188,
      "Ý": 189,
      "Þ": 190,
      "ß": 191,
      "à": 192,
      "á": 193,
      "â": 194,
      "ã": 195,
      "ä": 196,
      "å": 197,
      "æ": 198,
      "ç": 199,
      "è": 200,
      "é": 201,
      "ê": 202,
      "ë": 203,
      "ì": 204,
      "í": 205,
      "î": 206,
      "ï": 207,
      "ð": 208,
      "ñ": 209,
      "ò": 210,
      "ó": 211,
      "ô": 212,
      "õ": 213,
      "ö": 214,
      "÷": 215,
      "ø": 216,
      "ù": 217,
      "ú": 218,
      "û": 219,
      "ü": 220,
      "ý": 221,
      "þ": 222,
      "ÿ": 223,
      "Ā": 224,
      "ā": 225,
      "Ă": 226,
      "ă": 227,
      "Ą": 228,
      "ą": 229,
      "Ć": 230,
      "ć": 231,
      "Ĉ": 232,
      "ĉ": 233,
      "Ċ": 234,
      "ċ": 235,
      "Č": 236,
      "č": 237,
      "Ď": 238,
      "ď": 239,
      "Đ": 240,
      "đ": 241,
      "Ē": 242,
      "ē": 243,
      "Ĕ": 244,
      "ĕ": 245,
      "Ė": 246,
      "ė": 247,
      "Ę": 248,
      "ę": 249,
      "Ě": 250,
      "ě": 251,
      "Ĝ": 252,
      "ĝ": 253,
      "Ğ": 254,
      "ğ": 255,
      "Ġ": 256,
      "ġ": 257,
      "Ģ": 258,
      "ģ": 259,
      "Ĥ": 260,
      "ĥ": 261,
      "Ħ": 262,
      "ħ": 263,
      "Ĩ": 264,
      "ĩ": 265,
      "Ī": 266,
      "ī": 267,
      "Ĭ": 268,
      "ĭ": 269,
      "Į": 270,
      "į": 271,
      "İ": 272,
      "ı": 273,
      "Ĳ": 274,
      "ĳ": 275,
      "Ĵ": 276,
      "ĵ": 277,
      "Ķ": 278,
      "ķ": 279,
      "ĸ": 280,
      "Ĺ": 281,
      "ĺ": 282,
      "Ļ": 283,
      "ļ": 284,
      "Ľ": 285,
      "ľ": 286,
      "Ŀ": 287,
      "ŀ": 288,
      "Ł": 289,
      "ł": 290,
      "Ń": 291,
      "Ġt": 292,
      "Ġa": 293,
      "he": 294,
      "in": 295,
      "re": 296,
      "Ġthe": 297,
      "Ġo": 298,
      "er": 299,
      "on": 300,
      "at": 301,
      "Ġs": 302,
      "en": 303,
      "Ġc": 304,
      "es": 305,
      "Ġw": 306,
      "is": 307,
      "nd": 308,
      "or": 309,
      "it": 310,
      "Ġp": 311,
      "ed": 312,
      "Ġof": 313,
      "al": 314,
      "Ġb": 315,
      "Ġf": 316,
      "an": 317,
      "Ġin": 318,
      "ing": 319,
      "ar": 320,
      "Ġm": 321,
      "ou": 322,
      "Ġand": 323,
      "ic": 324,
      "Ġto": 325,
      "ion": 326,
      "Ġd": 327,
      "le": 328,
      "ro": 329,
      "as": 330,
      "Ġh": 331,
      "ent": 332,
      "Ġth": 333,
      "ct": 334,
      "Ġe": 335,
      "il": 336,
      "Ġre": 337,
      "ve": 338,
      "om": 339,
      "Ġl": 340,
      "st": 341,
      "Ġn": 342,
      "ly": 343,
      "Ġbe": 344,
      "ation": 345,
      "Ġis": 346,
      "ĠT": 347,
      "se": 348,
      "ol": 349,
      "Ġg": 350,
      "id": 351,
      "im": 352,
      "ce": 353,
      "et": 354,
      "ut": 355,
      "ra": 356,
      "ĠA": 357,
      "ot": 358,
      "ur": 359,
      "ch": 360,
      "Ġfor": 361,
      "ow": 362,
      "ĠS": 363,
      "ĠC": 364,
      "ig": 365,
      "Ġthat": 366,
      "Ġon": 367,
      "Ġu": 368,
      "ver": 369,
      "âĢ": 370,
      "ĠI": 371,
      "Ġst": 372,
      "ir": 373,
      "am": 374,
      "ul": 375,
      "ay": 376,
      "Ġas": 377,
      "el": 378,
      "Ġpro": 379,
      "her": 380,
      "ith": 381,
      "Ġcon": 382,
      "ad": 383,
      "Ġan": 384,
      "ĠM": 385,
      "ter": 386,
      "Ġwh": 387,
      "Ġwith": 388,
      "Ġare": 389,
      "Ġy": 390,
      "Ġ1": 391,
      "Ġ(": 392,
      "Ġor": 393,
      "if": 394,
      "Ġit": 395,
      "Ġal": 396,
      "ĠThe": 397,
      "ĠP": 398,
      "ment": 399,
      "ist": 400,
      "ers": 401,
      "od": 402,
      "th": 403,
      "op": 404,
      "ge": 405,
      "ies": 406,
      "Ġde": 407,
      "ate": 408,
      "ect": 409,
      "us": 410,
      "ĠB": 411,
      "ere": 412,
      "ity": 413,
      "ĠH": 414,
      "Ġex": 415,
      "um": 416,
      "res": 417,
      "ab": 418,
      "os": 419,
      "ill": 420,
      "est": 421,
      "Ġby": 422,
      "Ġcom": 423,
      "ore": 424,
      "ess": 425,
      "ri": 426,
      "ld": 427,
      "Ġhe": 428,
      "rom": 429,
      "Ġsu": 430,
      "em": 431,
      "and": 432,
      "nt": 433,
      "Ġat": 434,
      "our": 435,
      "ive": 436,
      "ac": 437,
      "Ġwas": 438,
      "ain": 439,
      "ant": 440,
      "qu": 441,
      "pp": 442,
      "Ġv": 443,
      "ĠD": 444,
      "ud": 445,
      "ĠE": 446,
      "Ġha": 447,
      "Ġfrom": 448,
      "iv": 449,
      "ĠW": 450,
      "igh": 451,
      "oc": 452,
      "ĠR": 453,
      "ke": 454,
      "Ġse": 455,
      "ĠF": 456,
      "ĠN": 457,
      "Ġne": 458,
      "ort": 459,
      "ure": 460,
      "Ġ2": 461,
      "Ġch": 462,
      "un": 463,
      "Ġnot": 464,
      "Ġr": 465,
      "ĠG": 466,
      "ial": 467,
      "ical": 468,
      "ĠL": 469,
      "art": 470,
      "Ġle": 471,
      "00": 472,
      "Ġcan": 473,
      "Ġhave": 474,
      "og": 475,
      "Ġsp": 476,
      "Ġen": 477,
      "Ġsh": 478,
      "ich": 479,
      "pt": 480,
      "gh": 481,
      "all": 482,
      "ould": 483,
      "rou": 484,
      "ight": 485,
      "Ġthis": 486,
      "The": 487,
      "âĢĻ": 488,
      "'s": 489,
      "Ġwor": 490,
      "ther": 491,
      "Ġab": 492,
      "ions": 493,
      "ĠJ": 494,
      "Ġyou": 495,
      "ated": 496,
      "ost": 497,
      "du": 498,
      "ome": 499,
      "ard": 500,
      "ell": 501,
      "ear": 502,
      "ff": 503,
      "ia": 504,
      "per": 505,
      "out": 506,
      "act": 507,
      "Ġwhich": 508,
      "ĠO": 509,
      "ast": 510,
      "Ġint": 511,
      "ĠU": 512,
      "Ġim": 513,
      "ans": 514,
      "Ġpl": 515,
      "ine": 516,
      "Ġwe": 517,
      "ĠâĢ": 518,
      "Ġus": 519,
      "Ġtheir": 520,
      "pl": 521,
      "ru": 522,
      "age": 523,
      "ĠIn": 524,
      "ew": 525,
      "iz": 526,
      "Ġcont": 527,
      "ous": 528,
      "ec": 529,
      "Ġ\"": 530,
      "Ġdis": 531,
      "ide": 532,
      "ap": 533,
      "are": 534,
      "cc": 535,
      "ib": 536,
      "ag": 537,
      "ations": 538,
      "Ġk": 539,
      "ak": 540,
      "vel": 541,
      "Ġall": 542,
      "Ġwhe": 543,
      "ust": 544,
      "Ġwere": 545,
      "ong": 546,
      "Ġad": 547,
      "ater": 548,
      "ary": 549,
      "Ġmore": 550,
      "end": 551,
      "Ġinc": 552,
      "Ġhas": 553,
      "orm": 554,
      "ult": 555,
      "Ġthey": 556,
      "ip": 557,
      "Ġper": 558,
      "Ġ19": 559,
      "Ġres": 560,
      "Ġcomp": 561,
      "ual": 562,
      "Ġdo": 563,
      "Ġbut": 564,
      "Ġother": 565,
      "ire": 566,
      "ild": 567,
      "so": 568,
      "ood": 569,
      "ence": 570,
      "Ġwill": 571,
      "ry": 572,
      "Ġcl": 573,
      "ks": 574,
      "ign": 575,
      "ance": 576,
      "Ġman": 577,
      "ĠTh": 578,
      "ose": 579,
      "ress": 580,
      "ep": 581,
      "able": 582,
      "Ġone": 583,
      "Ġar": 584,
      "ach": 585,
      "Ġj": 586,
      "Ġapp": 587,
      "ass": 588,
      "ount": 589,
      "Ġhis": 590,
      "ind": 591,
      "ase": 592,
      "reat": 593,
      "ord": 594,
      "Ġme": 595,
      "Ġpart": 596,
      "Ġev": 597,
      "ace": 598,
      "ction": 599,
      "Ġun": 600,
      "âĢĿ": 601,
      "Ġimp": 602,
      "Ġalso": 603,
      "av": 604,
      "Ġinf": 605,
      "ory": 606,
      "au": 607,
      "Ġwho": 608,
      "Ġcomm": 609,
      "ame": 610,
      "ĠCh": 611,
      "ents": 612,
      "ber": 613,
      "Ġte": 614,
      "ian": 615,
      ").": 616,
      "Ġso": 617,
      "ĠK": 618,
      "Ġout": 619,
      "ens": 620,
      "ice": 621,
      "ĠSt": 622,
      "ish": 623,
      "Ġabout": 624,
      "ree": 625,
      "very": 626,
      "Ġsc": 627,
      "olog": 628,
      "Ġpre": 629,
      "ition": 630,
      "ub": 631,
      "Ġyour": 632,
      "ite": 633,
      "ake": 634,
      "ces": 635,
      "ime": 636,
      "Ġmay": 637,
      "ack": 638,
      "ors": 639,
      "Ġbeen": 640,
      "Ġits": 641,
      "Ġrec": 642,
      "Ġsy": 643,
      "one": 644,
      "ound": 645,
      "Ġthan": 646,
      "Ġsome": 647,
      "Ġyear": 648,
      "Ġup": 649,
      "Ġthem": 650,
      "Ġstud": 651,
      "ang": 652,
      "ates": 653,
      "Ġthere": 654,
      "ric": 655,
      "Ġpe": 656,
      "ue": 657,
      "ile": 658,
      "ok": 659,
      "low": 660,
      "ĠâĢľ": 661,
      "Ġag": 662,
      "Ġqu": 663,
      "own": 664,
      "mer": 665,
      "ail": 666,
      "Ġbec": 667,
      "ĠV": 668,
      "ike": 669,
      "ough": 670,
      "Ġhad": 671,
      "over": 672,
      "rough": 673,
      "ject": 674,
      "Ġinto": 675,
      "ĠIt": 676,
      "ons": 677,
      "Ġtra": 678,
      "tern": 679,
      "nder": 680,
      "ings": 681,
      "ays": 682,
      "ie": 683,
      "ph": 684,
      "Ġdes": 685,
      "iff": 686,
      "Ġgen": 687,
      "rit": 688,
      "vers": 689,
      "Ġro": 690,
      "lic": 691,
      "te": 692,
      "Ġwork": 693,
      "ob": 694,
      "ople": 695,
      "ms": 696,
      "Ġra": 697,
      "ren": 698,
      "velop": 699,
      "ational": 700,
      "erv": 701,
      "hed": 702,
      "Ġtw": 703,
      "ond": 704,
      "Ġbet": 705,
      "lect": 706,
      "Ġthese": 707,
      "ities": 708,
      "Ġrep": 709,
      "ts": 710,
      "ove": 711,
      "Ġ3": 712,
      "lud": 713,
      "Ġcons": 714,
      "Ġwould": 715,
      "Ġact": 716,
      "Ġ-": 717,
      "Ġ200": 718,
      "Ġwhen": 719,
      "Ġsa": 720,
      "Ġkn": 721,
      "Ġover": 722,
      "Ġnew": 723,
      "we": 724,
      "ally": 725,
      "irst": 726,
      "ffect": 727,
      "Ġsuch": 728,
      "Ġrel": 729,
      "ments": 730,
      "ific": 731,
      "ys": 732,
      "Ġmost": 733,
      "Ġunder": 734,
      "Ġtime": 735,
      "ause": 736,
      "Ġany": 737,
      "ĠUn": 738,
      "wn": 739,
      "Ġcol": 740,
      "ll": 741,
      "ĠThis": 742,
      "stem": 743,
      "Ġdiff": 744,
      "Ġpeople": 745,
      "ious": 746,
      "red": 747,
      "ative": 748,
      "Ġuse": 749,
      "Ġacc": 750,
      "Ġbl": 751,
      "ient": 752,
      "Ġhow": 753,
      "ced": 754,
      "les": 755,
      "),": 756,
      "cess": 757,
      "Ġno": 758,
      "Ġdevelop": 759,
      "Ġif": 760,
      "Ġinclud": 761,
      "iss": 762,
      "Ġam": 763,
      "rib": 764,
      "Ġoff": 765,
      "Ġprov": 766,
      "Ġchild": 767,
      "Ġob": 768,
      "Ġspec": 769,
      "ning": 770,
      "Ġlike": 771,
      "ple": 772,
      "ĠY": 773,
      "Ġthrough": 774,
      "erm": 775,
      "Ġtwo": 776,
      "Ġonly": 777,
      "Ġexp": 778,
      "Ġph": 779,
      "ular": 780,
      "Ġsur": 781,
      "Ġprodu": 782,
      "Ġfirst": 783,
      "Ġneed": 784,
      "Ġtr": 785,
      "oss": 786,
      "Ġreg": 787,
      "ied": 788,
      "fter": 789,
      "int": 790,
      "ook": 791,
      "ert": 792,
      "ĠHe": 793,
      "ution": 794,
      "Ġmany": 795,
      "ating": 796,
      "uc": 797,
      "ov": 798,
      "Ġused": 799,
      "Ġem": 800,
      "arch": 801,
      "als": 802,
      "Ġour": 803,
      "Ġ20": 804,
      "Ġpr": 805,
      "uring": 806,
      "Ġac": 807,
      "iet": 808,
      "Ġind": 809,
      "ween": 810,
      "round": 811,
      "Ġinter": 812,
      "hen": 813,
      "aw": 814,
      "alth": 815,
      "ased": 816,
      "Ġ4": 817,
      "Ġsystem": 818,
      "Ġdec": 819,
      "ark": 820,
      "Ġpo": 821,
      "ics": 822,
      "Ġwhat": 823,
      "Ġwater": 824,
      "ited": 825,
      "oth": 826,
      "ower": 827,
      "pe": 828,
      "Ġyears": 829,
      "ists": 830,
      "Ġsub": 831,
      "Ġbetween": 832,
      "ility": 833,
      "Ġshould": 834,
      "Ġadd": 835,
      "ten": 836,
      "ne": 837,
      "Ġinv": 838,
      "gan": 839,
      "ath": 840,
      "gra": 841,
      "Ġcould": 842,
      "ife": 843,
      "ures": 844,
      "Ġpol": 845,
      "ible": 846,
      "Ġatt": 847,
      "eth": 848,
      "old": 849,
      "ful": 850,
      "lp": 851,
      "Ġass": 852,
      "ever": 853,
      "ise": 854,
      "Ġrem": 855,
      "Ġrese": 856,
      "cy": 857,
      "row": 858,
      "ool": 859,
      "ble": 860,
      "Ġcount": 861,
      "sel": 862,
      "fore": 863,
      "Ġhelp": 864,
      "..": 865,
      "Ġpres": 866,
      "Ġ5": 867,
      "ink": 868,
      "ormation": 869,
      "ism": 870,
      "ants": 871,
      "Ġwhere": 872,
      "ology": 873,
      "ĠAs": 874,
      "ered": 875,
      "Ġcent": 876,
      "Ġdisc": 877,
      "Ġsupp": 878,
      "uch": 879,
      "In": 880,
      "ange": 881,
      "Ġhum": 882,
      "ade": 883,
      "Ġdiffere": 884,
      "Ġfe": 885,
      "hes": 886,
      "ick": 887,
      "ont": 888,
      "Ġnum": 889,
      "Ġfl": 890,
      "ex": 891,
      "Ġwell": 892,
      "cent": 893,
      "meric": 894,
      "its": 895,
      "ft": 896,
      "Ġsign": 897,
      "ural": 898,
      "ins": 899,
      "Ġexam": 900,
      "ract": 901,
      "Ġdet": 902,
      "Ġthose": 903,
      "ident": 904,
      "oy": 905,
      "Ġmed": 906,
      "Ġeffect": 907,
      "Ġhigh": 908,
      "ily": 909,
      "ivers": 910,
      "Ġtrans": 911,
      "gy": 912,
      "Ġsaid": 913,
      "ature": 914,
      "ork": 915,
      "Ġform": 916,
      "Ġcall": 917,
      "Ġear": 918,
      "ines": 919,
      "land": 920,
      "Ġgo": 921,
      "Ġsm": 922,
      "cept": 923,
      "chn": 924,
      "Ġref": 925,
      "ng": 926,
      ".\"": 927,
      "Ġfound": 928,
      "ĠPro": 929,
      "Ġher": 930,
      "Ġmod": 931,
      "ict": 932,
      "Ġafter": 933,
      "Ġpers": 934,
      "ĠAmeric": 935,
      "ars": 936,
      "Ġlar": 937,
      "Ġloc": 938,
      "Ġeven": 939,
      "overn": 940,
      "ually": 941,
      "vent": 942,
      "ases": 943,
      "Ġlong": 944,
      "ds": 945,
      "Ġinst": 946,
      "Ġimport": 947,
      "Ġcell": 948,
      "Ġincre": 949,
      "Ġ18": 950,
      "other": 951,
      "ran": 952,
      "Ġfact": 953,
      "Ġdef": 954,
      "ience": 955,
      "urn": 956,
      "itt": 957,
      "Ġext": 958,
      "omm": 959,
      "Ġinformation": 960,
      "Ġbu": 961,
      "Ġworld": 962,
      "eral": 963,
      "Ġgra": 964,
      "ata": 965,
      "Ġmake": 966,
      "led": 967,
      "Ġbecause": 968,
      "Ġcommun": 969,
      "Ġvery": 970,
      "ruct": 971,
      "ward": 972,
      "Ġright": 973,
      "ef": 974,
      "Ġed": 975,
      "Ġway": 976,
      "ved": 977,
      "ollow": 978,
      "19": 979,
      "iron": 980,
      "ck": 981,
      "Ġmem": 982,
      "Ġjust": 983,
      "ives": 984,
      "Ġthen": 985,
      "Ġsame": 986,
      "Ġbeing": 987,
      "ection": 988,
      "ically": 989,
      "ĠAl": 990,
      "chool": 991,
      "iew": 992,
      "ix": 993,
      "Ġpub": 994,
      "io": 995,
      "Th": 996,
      "Ġsee": 997,
      "Ġprocess": 998,
      "cer": 999,
      "ues": 1000,
      "Ġget": 1001,
      "Ġsim": 1002,
      "Ġart": 1003,
      "Ġknow": 1004,
      "Ġdist": 1005,
      "imes": 1006,
      "Ġexper": 1007,
      "ized": 1008,
      "Ġco": 1009,
      "Ġfam": 1010,
      "Ġpartic": 1011,
      "Ġeach": 1012,
      "Ġsec": 1013,
      "ty": 1014,
      "Ġresp": 1015,
      "aking": 1016,
      "roup": 1017,
      "con": 1018,
      "Ġchildren": 1019,
      "ages": 1020,
      "Ġaut": 1021,
      "Ġmuch": 1022,
      "Ġhealth": 1023,
      "Ġtest": 1024,
      "Ġpat": 1025,
      "Ġty": 1026,
      "Ġocc": 1027,
      "Ġdifferent": 1028,
      "ness": 1029,
      "Ġcar": 1030,
      "Ġresult": 1031,
      "iversity": 1032,
      "Ġca": 1033,
      "Ġduring": 1034,
      "hem": 1035,
      "irect": 1036,
      "viron": 1037,
      "ather": 1038,
      "Ġrequ": 1039,
      "Ġmon": 1040,
      "Ġke": 1041,
      "Ġ6": 1042,
      "Ġhim": 1043,
      "Ġtechn": 1044,
      "ize": 1045,
      "Ġagain": 1046,
      "Ġback": 1047,
      "'t": 1048,
      "Ġsoc": 1049,
      "Ġfollow": 1050,
      "Ġstate": 1051,
      "Ġcor": 1052,
      "ĠAn": 1053,
      "ah": 1054,
      "ished": 1055,
      "und": 1056,
      "Ġvar": 1057,
      "Ġ201": 1058,
      "ince": 1059,
      "Ġent": 1060,
      "Ġgovern": 1061,
      "Ġend": 1062,
      ",\"": 1063,
      "Ġevery": 1064,
      "get": 1065,
      "ĠWh": 1066,
      "Ġpop": 1067,
      "ral": 1068,
      "ĠFor": 1069,
      "Ġmade": 1070,
      "Ġset": 1071,
      "ros": 1072,
      "Ġmin": 1073,
      "the": 1074,
      "Ġown": 1075,
      "gg": 1076,
      "ĠNew": 1077,
      "Ġcur": 1078,
      "ined": 1079,
      "Ġdep": 1080,
      "Ġimportant": 1081,
      "Ġcre": 1082,
      "Ġappro": 1083,
      "ĠAr": 1084,
      "Ġdoes": 1085,
      "ands": 1086,
      "ĠRe": 1087,
      ".,": 1088,
      "Ġlevel": 1089,
      "Ġest": 1090,
      "Ġresearch": 1091,
      "Ġ7": 1092,
      "Ġcomple": 1093,
      "form": 1094,
      "Ġlife": 1095,
      "Ġboth": 1096,
      "ination": 1097,
      "Ġins": 1098,
      "||": 1099,
      "Ġshow": 1100,
      "vironment": 1101,
      "ergy": 1102,
      "Ġtreat": 1103,
      "rol": 1104,
      "ides": 1105,
      "ven": 1106,
      "Ġfind": 1107,
      "arm": 1108,
      "ury": 1109,
      "Ġdata": 1110,
      "Ġproble": 1111,
      "Ġlear": 1112,
      "ĠThey": 1113,
      "Ġgroup": 1114,
      "Ġshe": 1115,
      "ĠInd": 1116,
      "Ġser": 1117,
      "Ġstudy": 1118,
      "iel": 1119,
      "ron": 1120,
      "Ġorgan": 1121,
      "ee": 1122,
      "Ġma": 1123,
      "Ġhist": 1124,
      "Ġthree": 1125,
      "Ġsmall": 1126,
      "ital": 1127,
      "Ġprot": 1128,
      "ially": 1129,
      "Ġprogra": 1130,
      "Ġbefore": 1131,
      "ĠâĢĵ": 1132,
      "Ġ199": 1133,
      "Ġpower": 1134,
      "hip": 1135,
      "read": 1136,
      "ute": 1137,
      "ior": 1138,
      "omen": 1139,
      "Ġnow": 1140,
      "Ġactiv": 1141,
      "xt": 1142,
      "ving": 1143,
      "stit": 1144,
      "ĠIf": 1145,
      "Ġmy": 1146,
      "ĠHow": 1147,
      "Ġcontin": 1148,
      "Ġnumber": 1149,
      "oun": 1150,
      "Ġread": 1151,
      "ier": 1152,
      "imate": 1153,
      "ĠSc": 1154,
      "Ġav": 1155,
      "any": 1156,
      "Ġreport": 1157,
      "ting": 1158,
      "Ġgl": 1159,
      "Ġbo": 1160,
      "000": 1161,
      "Ġoften": 1162,
      "ters": 1163,
      "Ġhuman": 1164,
      "Ġdise": 1165,
      "Ġcour": 1166,
      "ĠIs": 1167,
      "Ġlead": 1168,
      "Ġ10": 1169,
      "Ġposs": 1170,
      ".âĢĿ": 1171,
      "osed": 1172,
      "Ġmust": 1173,
      "Ġsol": 1174,
      "Ġelect": 1175,
      "inal": 1176,
      "Ġdid": 1177,
      "ody": 1178,
      "Ġusing": 1179,
      "up": 1180,
      "Ġexpl": 1181,
      "ĠWe": 1182,
      "Ġpercent": 1183,
      "Ġdown": 1184,
      "rent": 1185,
      "orth": 1186,
      "gen": 1187,
      "ared": 1188,
      "Ġlaw": 1189,
      "Ġexample": 1190,
      "ring": 1191,
      "Ġperson": 1192,
      "uss": 1193,
      "ium": 1194,
      "hers": 1195,
      "ices": 1196,
      "Ġgood": 1197,
      "Ġvis": 1198,
      "Ġgrow": 1199,
      "Ġcalled": 1200,
      "self": 1201,
      "Ġconf": 1202,
      "Ġbel": 1203,
      "cl": 1204,
      "Ġdesc": 1205,
      "ves": 1206,
      "air": 1207,
      "Ġschool": 1208,
      "outh": 1209,
      "Ġthough": 1210,
      "ĠUniversity": 1211,
      "ians": 1212,
      "Ġ8": 1213,
      "Ġwhile": 1214,
      "Ġtem": 1215,
      "Ġdirect": 1216,
      "ains": 1217,
      "Ġmet": 1218,
      "ivid": 1219,
      "ave": 1220,
      "Ġredu": 1221,
      "ĠSp": 1222,
      "ock": 1223,
      "lear": 1224,
      "Ġless": 1225,
      "nce": 1226,
      "Ġmain": 1227,
      "stand": 1228,
      "Ġcommon": 1229,
      "bers": 1230,
      "ĠBut": 1231,
      "Ġlarge": 1232,
      "ale": 1233,
      "Ġstr": 1234,
      "Ġplan": 1235,
      "âĢĶ": 1236,
      "der": 1237,
      "oh": 1238,
      "Ġconsid": 1239,
      "ulation": 1240,
      "Ġcap": 1241,
      "Ġgovernment": 1242,
      "day": 1243,
      "Ġgreat": 1244,
      "Ġsk": 1245,
      "ality": 1246,
      "Ġchar": 1247,
      "Ġwrit": 1248,
      "ĠDe": 1249,
      "Ġincluding": 1250,
      "ton": 1251,
      "Ġstudents": 1252,
      "Ġdesign": 1253,
      "iqu": 1254,
      "Ġfun": 1255,
      "ources": 1256,
      "Ġret": 1257,
      "Ġallow": 1258,
      "de": 1259,
      "ries": 1260,
      "iation": 1261,
      "Ġaround": 1262,
      "Ġstill": 1263,
      "Ġsupport": 1264,
      "ted": 1265,
      "itions": 1266,
      "conom": 1267,
      "Ġagainst": 1268,
      "com": 1269,
      "ĠCon": 1270,
      "illion": 1271,
      "orn": 1272,
      "Ġop": 1273,
      "acter": 1274,
      "Ġgener": 1275,
      "Ġobject": 1276,
      "Ġenergy": 1277,
      "ization": 1278,
      "20": 1279,
      "man": 1280,
      "rist": 1281,
      "Ġserv": 1282,
      "akes": 1283,
      "ris": 1284,
      "ĠPh": 1285,
      "Ġris": 1286,
      "ner": 1287,
      "Ġsom": 1288,
      "inc": 1289,
      "Ġclass": 1290,
      "This": 1291,
      "dition": 1292,
      "Ġcare": 1293,
      "ger": 1294,
      "Ġwithout": 1295,
      "iver": 1296,
      "Ġmight": 1297,
      "Ġfood": 1298,
      "Ġplace": 1299,
      "ained": 1300,
      "ĠAnd": 1301,
      "Ġenvironment": 1302,
      "10": 1303,
      "ected": 1304,
      "ouse": 1305,
      "Ġknown": 1306,
      "Ġval": 1307,
      "ĠAmerican": 1308,
      "Ġadv": 1309,
      "ien": 1310,
      "iven": 1311,
      "iety": 1312,
      "Ġ'": 1313,
      "ption": 1314,
      "erest": 1315,
      "ired": 1316,
      "Ġday": 1317,
      "amp": 1318,
      "Ġtake": 1319,
      "Ġpublic": 1320,
      "reen": 1321,
      "ross": 1322,
      "Ġequ": 1323,
      "Ġlook": 1324,
      "ertain": 1325,
      "lished": 1326,
      "Ġdem": 1327,
      "Ġ15": 1328,
      "Ġpress": 1329,
      "ull": 1330,
      "Ġanother": 1331,
      "jor": 1332,
      "ense": 1333,
      "rop": 1334,
      "me": 1335,
      "ording": 1336,
      "Ġwar": 1337,
      "way": 1338,
      "Ġmil": 1339,
      "ret": 1340,
      "Ġiss": 1341,
      "Ġsl": 1342,
      "ĠRes": 1343,
      "iod": 1344,
      "ash": 1345,
      "Ġphys": 1346,
      "ax": 1347,
      "Ġleg": 1348,
      "Ġgu": 1349,
      "ids": 1350,
      "aterial": 1351,
      "Ġdevelopment": 1352,
      "Ġfew": 1353,
      "arent": 1354,
      "Ġscient": 1355,
      "Ġwithin": 1356,
      "ĠSe": 1357,
      "ration": 1358,
      "Ġchang": 1359,
      "ĠAt": 1360,
      "Ġmar": 1361,
      "Ġcells": 1362,
      "Ġarea": 1363,
      "Ġquest": 1364,
      "ining": 1365,
      "Ġ9": 1366,
      "Ġpresent": 1367,
      "Wh": 1368,
      "ified": 1369,
      "ĠJew": 1370,
      "ission": 1371,
      "ional": 1372,
      "Ġdisease": 1373,
      "Ġlow": 1374,
      "Ġeconom": 1375,
      "iving": 1376,
      "ĠThere": 1377,
      "Ġbody": 1378,
      "ina": 1379,
      "Ġthink": 1380,
      "Ġcontrol": 1381,
      "ential": 1382,
      "Ġrest": 1383,
      "Ġsocial": 1384,
      "atural": 1385,
      "Ġmat": 1386,
      "use": 1387,
      "bs": 1388,
      "Ġide": 1389,
      "Ġspecies": 1390,
      "Ġeduc": 1391,
      "Ġoccur": 1392,
      "hor": 1393,
      "Ġeff": 1394,
      "Ġland": 1395,
      "ĠUnited": 1396,
      "Ġstart": 1397,
      "ccess": 1398,
      "to": 1399,
      "Ġinterest": 1400,
      "âĢľ": 1401,
      "face": 1402,
      "Ġsays": 1403,
      "olution": 1404,
      "ĠGod": 1405,
      "Ġhand": 1406,
      "ĠCol": 1407,
      "Ġunderstand": 1408,
      "Ġpract": 1409,
      "gin": 1410,
      "Ġstand": 1411,
      "Ġbuild": 1412,
      "Ġlim": 1413,
      "ived": 1414,
      "Ġmeas": 1415,
      "Ġproduct": 1416,
      "ently": 1417,
      "ww": 1418,
      "Ġmajor": 1419,
      "ield": 1420,
      "lish": 1421,
      "here": 1422,
      "Ġnear": 1423,
      "Ġmeth": 1424,
      "eng": 1425,
      "az": 1426,
      "rodu": 1427,
      "Ġcaus": 1428,
      "Ġbas": 1429,
      "ĠEn": 1430,
      "ological": 1431,
      "It": 1432,
      "work": 1433,
      "Ġtri": 1434,
      "less": 1435,
      "Ġbeh": 1436,
      "Ġproject": 1437,
      "Ġsever": 1438,
      "uro": 1439,
      "Ġant": 1440,
      "ĠChrist": 1441,
      "ĠCent": 1442,
      "Ġpass": 1443,
      "els": 1444,
      "Ġinvol": 1445,
      "line": 1446,
      "ern": 1447,
      "Ġoper": 1448,
      "Ġchange": 1449,
      "Ġmaterial": 1450,
      "Ġblood": 1451,
      "itive": 1452,
      "Ġbir": 1453,
      "ĠComm": 1454,
      "Ġinclude": 1455,
      "Ġbro": 1456,
      "Ġlast": 1457,
      "ote": 1458,
      "Ġproper": 1459,
      "ĠHowever": 1460,
      "osp": 1461,
      "Ġold": 1462,
      "Ġopp": 1463,
      "though": 1464,
      "ering": 1465,
      "arc": 1466,
      "Ġ17": 1467,
      "Ġpoint": 1468,
      "Ġfore": 1469,
      "ason": 1470,
      "Ġve": 1471,
      "ĠCan": 1472,
      "ogra": 1473,
      "atic": 1474,
      "Ġmove": 1475,
      "Ġlater": 1476,
      "Ġwomen": 1477,
      "ĠThese": 1478,
      "Ġcurrent": 1479,
      "Ġeas": 1480,
      ",âĢĿ": 1481,
      "Ġident": 1482,
      "esp": 1483,
      "Ġdon": 1484,
      "Ġconst": 1485,
      "Ġearly": 1486,
      "ned": 1487,
      "ards": 1488,
      "Ġlocal": 1489,
      "Ġbelie": 1490,
      "ividual": 1491,
      "ator": 1492,
      "Ġanim": 1493,
      "ternational": 1494,
      "Ġcountry": 1495,
      "Ġlight": 1496,
      "ug": 1497,
      "Ġ[": 1498,
      "ĠStates": 1499,
      "Ġprogram": 1500,
      "Ġfamily": 1501,
      "med": 1502,
      "Ġunt": 1503,
      "Ġprovide": 1504,
      "Ġpot": 1505,
      "Ġet": 1506,
      "Ġbre": 1507,
      "Ġele": 1508,
      "oms": 1509,
      "ify": 1510,
      "...": 1511,
      "alk": 1512,
      "Ġaddition": 1513,
      "cing": 1514,
      "Ġsay": 1515,
      "Ġtyp": 1516,
      "ource": 1517,
      "Ġeng": 1518,
      "Ġtreatment": 1519,
      "Ġmus": 1520,
      "Ġparticular": 1521,
      "erc": 1522,
      "ples": 1523,
      "Ġdeterm": 1524,
      "ets": 1525,
      "rain": 1526,
      "resent": 1527,
      "Ġamong": 1528,
      "Ġseveral": 1529,
      "ision": 1530,
      "Ġsecond": 1531,
      "ploy": 1532,
      "Ġsit": 1533,
      "ĠAd": 1534,
      "oid": 1535,
      "ware": 1536,
      "Ġareas": 1537,
      "eg": 1538,
      "par": 1539,
      "Ġfour": 1540,
      "angu": 1541,
      "pect": 1542,
      "ames": 1543,
      "Ġ&": 1544,
      "ĠEng": 1545,
      "Ġinfl": 1546,
      "ĠNational": 1547,
      "Ġtre": 1548,
      "Ġdev": 1549,
      "ole": 1550,
      "Ġcult": 1551,
      "idence": 1552,
      "Ġtoo": 1553,
      "Ġorig": 1554,
      "ention": 1555,
      "Ġperform": 1556,
      "ended": 1557,
      "Ġavail": 1558,
      "Ġprof": 1559,
      "Ġpar": 1560,
      "Ġmark": 1561,
      "Ġhig": 1562,
      "Ġfollowing": 1563,
      "Ġhy": 1564,
      "Ġmethod": 1565,
      "12": 1566,
      "Ġhere": 1567,
      "Ġrun": 1568,
      "of": 1569,
      "Ġcertain": 1570,
      "att": 1571,
      "Ġhome": 1572,
      "Ġview": 1573,
      "Ġspe": 1574,
      "ĠZ": 1575,
      "Ġname": 1576,
      "Ġprop": 1577,
      "Ġfre": 1578,
      "Ġindividual": 1579,
      "Ġbi": 1580,
      "Ġsuccess": 1581,
      "ĠCl": 1582,
      "Ġter": 1583,
      "Ġaffect": 1584,
      "Ġindu": 1585,
      "ental": 1586,
      "ape": 1587,
      "Ġanal": 1588,
      "Ġplant": 1589,
      "18": 1590,
      "Ġpolit": 1591,
      "Ġwant": 1592,
      "Ġel": 1593,
      "ĠTo": 1594,
      "Ġpost": 1595,
      "omp": 1596,
      "Ġair": 1597,
      "Ġgiven": 1598,
      "Ġtimes": 1599,
      "Ġopen": 1600,
      "isc": 1601,
      "abor": 1602,
      "Ġpossible": 1603,
      "ability": 1604,
      "ĠSh": 1605,
      "ably": 1606,
      "Ġperiod": 1607,
      "Ġprovid": 1608,
      "Ġhistory": 1609,
      "Ġfar": 1610,
      "Ġstruct": 1611,
      "Ġtru": 1612,
      "Ġpos": 1613,
      "Ġmen": 1614,
      "Ġimpro": 1615,
      "Ġpur": 1616,
      "Ġben": 1617,
      "Ġorder": 1618,
      "Ġsince": 1619,
      "Ġbetter": 1620,
      "ats": 1621,
      "Ġprom": 1622,
      "Ġmeans": 1623,
      "Ġmean": 1624,
      "Ġtemper": 1625,
      "Ġbecome": 1626,
      "ged": 1627,
      "Ġpain": 1628,
      "Ġbest": 1629,
      "ison": 1630,
      "aim": 1631,
      "Ġnet": 1632,
      "iter": 1633,
      "NA": 1634,
      "obal": 1635,
      "Ġapplic": 1636,
      "tt": 1637,
      "Ġcause": 1638,
      "ĠWhen": 1639,
      "Ġcentury": 1640,
      "Ġrece": 1641,
      "ĠYou": 1642,
      "etic": 1643,
      "urther": 1644,
      "Ġseem": 1645,
      "Ġplay": 1646,
      "Ġaccess": 1647,
      "ories": 1648,
      "Ġfree": 1649,
      "âĢĵ": 1650,
      "Ġ198": 1651,
      "Ġsurface": 1652,
      "Ġfin": 1653,
      "ĠâĢĶ": 1654,
      "Ġbased": 1655,
      "ĠMed": 1656,
      "Ġdra": 1657,
      "Ġrev": 1658,
      "orts": 1659,
      "ling": 1660,
      "Ġdel": 1661,
      "ilar": 1662,
      "ored": 1663,
      "ither": 1664,
      "Ġtop": 1665,
      "ograph": 1666,
      "Ġcost": 1667,
      "ĠPl": 1668,
      "Ġavailable": 1669,
      "ways": 1670,
      "Ġrecord": 1671,
      "Ġkeep": 1672,
      "urope": 1673,
      "mb": 1674,
      "Ġfac": 1675,
      "Ġleast": 1676,
      "Ġleft": 1677,
      "ued": 1678,
      "icle": 1679,
      "Ġdescrib": 1680,
      "gn": 1681,
      "Ġche": 1682,
      "Ġcase": 1683,
      "Ġpressure": 1684,
      "idd": 1685,
      "une": 1686,
      "ĠEar": 1687,
      "ittle": 1688,
      "Ġestab": 1689,
      "oks": 1690,
      "rim": 1691,
      "ĠQ": 1692,
      "Ġpri": 1693,
      "Ġabove": 1694,
      "unt": 1695,
      "Ġlist": 1696,
      "Ġobs": 1697,
      "ler": 1698,
      "rug": 1699,
      "ends": 1700,
      "Ġrisk": 1701,
      "Ġsing": 1702,
      "Ġcountries": 1703,
      "Ġauthor": 1704,
      "Ġcases": 1705,
      "Ġmillion": 1706,
      "Ġdri": 1707,
      "Ġable": 1708,
      "ggest": 1709,
      "ead": 1710,
      "Ġamount": 1711,
      "11": 1712,
      "oph": 1713,
      "Ġuntil": 1714,
      "por": 1715,
      "Ġwee": 1716,
      "ances": 1717,
      "Ġ12": 1718,
      "icult": 1719,
      "Ġnatural": 1720,
      "Ġrad": 1721,
      "Ġothers": 1722,
      "ohn": 1723,
      "iate": 1724,
      "Ġcommunity": 1725,
      "ĠOn": 1726,
      "rid": 1727,
      "Ġchem": 1728,
      "Ġnon": 1729,
      "Ġ16": 1730,
      "ude": 1731,
      "Ġlet": 1732,
      "Ġcond": 1733,
      "Ġsignific": 1734,
      "be": 1735,
      "Ġclear": 1736,
      "Ġhard": 1737,
      "Ġthings": 1738,
      "apt": 1739,
      "Ġturn": 1740,
      "Ġcrit": 1741,
      "Ġsuggest": 1742,
      "Ġsaf": 1743,
      "sy": 1744,
      "ray": 1745,
      "Ġrepresent": 1746,
      "ured": 1747,
      "aps": 1748,
      "Ġappear": 1749,
      "Ġproblem": 1750,
      "Ġproblems": 1751,
      "ething": 1752,
      "Ġput": 1753,
      "Ġcomput": 1754,
      "Ġlangu": 1755,
      "ode": 1756,
      "ik": 1757,
      "ogn": 1758,
      "ird": 1759,
      "50": 1760,
      "ills": 1761,
      "ients": 1762,
      "alf": 1763,
      "Ġconn": 1764,
      "atory": 1765,
      "Ġrele": 1766,
      "Ġmonth": 1767,
      "Ġ0": 1768,
      "irc": 1769,
      "ĠOr": 1770,
      "Ġage": 1771,
      "Ġlevels": 1772,
      "iness": 1773,
      "Ġbus": 1774,
      "icial": 1775,
      "ĠNorth": 1776,
      "Ġprevent": 1777,
      "sp": 1778,
      "Ġreal": 1779,
      "Ġassoc": 1780,
      "ledge": 1781,
      "Ġcourse": 1782,
      "We": 1783,
      "ĠEx": 1784,
      "ĠEurope": 1785,
      "Ġrights": 1786,
      "rel": 1787,
      "ised": 1788,
      "iated": 1789,
      "Ġcomb": 1790,
      "Ġwords": 1791,
      "Ġparent": 1792,
      "Ġcancer": 1793,
      "Ġmot": 1794,
      "Ġpopulation": 1795,
      "ivil": 1796,
      "aken": 1797,
      "Ġdiscuss": 1798,
      "ilities": 1799,
      "Ġshort": 1800,
      "Ġfunction": 1801,
      "Ġsomething": 1802,
      "nal": 1803,
      "200": 1804,
      "ĠSy": 1805,
      "Ġlo": 1806,
      "ĠBe": 1807,
      "ank": 1808,
      "Ġhowever": 1809,
      "Ġer": 1810,
      "ung": 1811,
      "Ġflow": 1812,
      "Ġmembers": 1813,
      "aper": 1814,
      "rate": 1815,
      "ĠAll": 1816,
      "Ġworks": 1817,
      "Ġsite": 1818,
      "ĠâĢĺ": 1819,
      "val": 1820,
      "orld": 1821,
      "vious": 1822,
      "ĠSoc": 1823,
      "Ġhead": 1824,
      "Ġplants": 1825,
      "Ġeffects": 1826,
      "Ġpast": 1827,
      "Ġdeath": 1828,
      "duct": 1829,
      "for": 1830,
      "Ġfil": 1831,
      "Ġusually": 1832,
      "Ġcal": 1833,
      "Ġdue": 1834,
      "Ġhapp": 1835,
      "ortun": 1836,
      "Ġey": 1837,
      "Ġexist": 1838,
      "earch": 1839,
      "Ġlittle": 1840,
      "Ġcome": 1841,
      "Ġresearc": 1842,
      "wh": 1843,
      "ene": 1844,
      "Ġnever": 1845,
      "Ġill": 1846,
      "Ġ13": 1847,
      "ivity": 1848,
      "Ġhaving": 1849,
      "ĠLe": 1850,
      "As": 1851,
      "Ġmult": 1852,
      "ĠHis": 1853,
      "alt": 1854,
      "Ġnecess": 1855,
      "ules": 1856,
      "aining": 1857,
      "ocus": 1858,
      "ecially": 1859,
      "Ġword": 1860,
      "ication": 1861,
      "oint": 1862,
      "let": 1863,
      "Ġdoct": 1864,
      "Ġ--": 1865,
      "ream": 1866,
      "agement": 1867,
      "ope": 1868,
      "SA": 1869,
      "Ġspecific": 1870,
      "Ġbook": 1871,
      "aster": 1872,
      "Ġresults": 1873,
      "Ġesp": 1874,
      "ĠTe": 1875,
      "Ġspecial": 1876,
      "Ġsystems": 1877,
      "Ġsw": 1878,
      "Ġbenef": 1879,
      "rap": 1880,
      "Ġspace": 1881,
      "Ġgeneral": 1882,
      "Ġz": 1883,
      "Ġdrug": 1884,
      "Ġsimilar": 1885,
      "ges": 1886,
      "most": 1887,
      "Ġbegin": 1888,
      "Ġlikely": 1889,
      "Ġtechnology": 1890,
      "ane": 1891,
      "Ġla": 1892,
      "ĠAf": 1893,
      "Ġsex": 1894,
      "Ġlay": 1895,
      "Ġgre": 1896,
      "Ġinvest": 1897,
      "ĠAct": 1898,
      "Ġprofess": 1899,
      "pr": 1900,
      "istic": 1901,
      "ression": 1902,
      "Ġindust": 1903,
      "ule": 1904,
      "Ġgr": 1905,
      "Ġprote": 1906,
      "ively": 1907,
      "Ġdifficult": 1908,
      "Ġtype": 1909,
      "Ġchanges": 1910,
      "lement": 1911,
      "Ġenc": 1912,
      "Ġstudies": 1913,
      "selves": 1914,
      "Ġcharacter": 1915,
      "not": 1916,
      "Ġvir": 1917,
      "asing": 1918,
      "If": 1919,
      "ipp": 1920,
      "Ġ$": 1921,
      "Ġcity": 1922,
      "Ġlower": 1923,
      "ending": 1924,
      "Ġdays": 1925,
      "Ġemploy": 1926,
      "ox": 1927,
      "eds": 1928,
      "Ġ30": 1929,
      "by": 1930,
      "Ġvarious": 1931,
      "min": 1932,
      "ront": 1933,
      "Ġterm": 1934,
      "ruction": 1935,
      "Ġbecame": 1936,
      "Ġincrease": 1937,
      "sw": 1938,
      "utes": 1939,
      "Ġprim": 1940,
      "rated": 1941,
      "Ġstep": 1942,
      "iam": 1943,
      "mp": 1944,
      "Ġyoung": 1945,
      "Ġworking": 1946,
      "Ġenough": 1947,
      "ĠJohn": 1948,
      "Ġhigher": 1949,
      "Ġsignificant": 1950,
      "Ġtoday": 1951,
      "Ġground": 1952,
      "ĠWar": 1953,
      "Ġinflu": 1954,
      "onst": 1955,
      "erence": 1956,
      "Ġneeds": 1957,
      "ications": 1958,
      "Ġvol": 1959,
      "Ġthought": 1960,
      "Ġoil": 1961,
      "Ġalong": 1962,
      "eter": 1963,
      "Ġitself": 1964,
      "Ġespecially": 1965,
      "Ġside": 1966,
      "Ġprotect": 1967,
      "Ġeducation": 1968,
      "Ġtoget": 1969,
      "Ġdeveloped": 1970,
      "Ġknowledge": 1971,
      "ĠWhat": 1972,
      "Ġtogether": 1973,
      "St": 1974,
      "uture": 1975,
      "Ġask": 1976,
      "ublic": 1977,
      "Ġcomplete": 1978,
      "Ġfocus": 1979,
      "Ġseen": 1980,
      "hib": 1981,
      "ency": 1982,
      "Ġfail": 1983,
      "Ġ14": 1984,
      "Ġplac": 1985,
      "Ġstrong": 1986,
      "ĠEarth": 1987,
      "ires": 1988,
      "mber": 1989,
      "Ġupon": 1990,
      "Ġpolic": 1991,
      "Ġconditions": 1992,
      "anc": 1993,
      "ley": 1994,
      "lection": 1995,
      "aves": 1996,
      "Ġrespons": 1997,
      "Ġpolitical": 1998,
      "ators": 1999,
      "Ġsens": 2000,
      "Ġfra": 2001,
      "ĠGerm": 2002,
      "Ġevidence": 2003,
      "Ġrelations": 2004,
      "ĠX": 2005,
      "ĠBrit": 2006,
      "ĠYork": 2007,
      "iting": 2008,
      "Ġmaking": 2009,
      "son": 2010,
      "Ġnorm": 2011,
      "rict": 2012,
      "17": 2013,
      "Ġfurther": 2014,
      "Ġimpact": 2015,
      "ma": 2016,
      "ones": 2017,
      "ots": 2018,
      "Ġconcer": 2019,
      "Ġevent": 2020,
      "Ġfall": 2021,
      "ique": 2022,
      "Ġincreased": 2023,
      "An": 2024,
      "nam": 2025,
      "ott": 2026,
      "ours": 2027,
      "Ġnext": 2028,
      "Ġactivity": 2029,
      "\".": 2030,
      "--": 2031,
      "Ġcirc": 2032,
      "Ġrather": 2033,
      "itor": 2034,
      "ĠCal": 2035,
      "ĠMay": 2036,
      "thing": 2037,
      "Ġneg": 2038,
      "osis": 2039,
      "ember": 2040,
      "Ġsingle": 2041,
      "There": 2042,
      "ĠWorld": 2043,
      "ĠFl": 2044,
      "Ġkind": 2045,
      "Ġrequire": 2046,
      "Ġnetwork": 2047,
      "iment": 2048,
      "ĠSouth": 2049,
      "ffic": 2050,
      "Ġwhether": 2051,
      "ocu": 2052,
      "Ġsource": 2053,
      "ederal": 2054,
      "ĠAb": 2055,
      "ĠThat": 2056,
      "Ġaddress": 2057,
      "Ġcreate": 2058,
      "Ġgrowth": 2059,
      "Ġfield": 2060,
      "ĠSo": 2061,
      "ready": 2062,
      "Ġconsider": 2063,
      "enn": 2064,
      "Ġregion": 2065,
      "Ġsubst": 2066,
      "Ġsubject": 2067,
      "Ġsent": 2068,
      "Ġdr": 2069,
      "ĠSome": 2070,
      "elf": 2071,
      "Ġimm": 2072,
      "lo": 2073,
      "Ġcreat": 2074,
      "icro": 2075,
      "ysis": 2076,
      "abit": 2077,
      "Ġresearchers": 2078,
      "13": 2079,
      "15": 2080,
      "Ġopt": 2081,
      "Ġfive": 2082,
      "Ġmov": 2083,
      "Ġteam": 2084,
      "Ġteac": 2085,
      "Ġlearn": 2086,
      "Ġlearning": 2087,
      "Ġ.": 2088,
      "Ġfund": 2089,
      "Ġfull": 2090,
      "lim": 2091,
      "Ġeconomic": 2092,
      "Ġaway": 2093,
      "Ġdam": 2094,
      "Ġhistor": 2095,
      "eb": 2096,
      "Ġess": 2097,
      "Ġbelow": 2098,
      "ournal": 2099,
      "ervation": 2100,
      "app": 2101,
      "side": 2102,
      "Ġtry": 2103,
      "Ġbrain": 2104,
      "ulations": 2105,
      "ibility": 2106,
      "ilt": 2107,
      "Ġwhy": 2108,
      "ĠRep": 2109,
      "ĠGe": 2110,
      "Ġarg": 2111,
      "Ġexperience": 2112,
      "oot": 2113,
      "Ġwat": 2114,
      "ĠMus": 2115,
      "Ġreturn": 2116,
      "right": 2117,
      "sc": 2118,
      "rown": 2119,
      "Ġeither": 2120,
      "Ġprob": 2121,
      "Ġsepar": 2122,
      "Ġresources": 2123,
      "cle": 2124,
      "itary": 2125,
      "ĠUS": 2126,
      "Ġthemselves": 2127,
      "Ġrole": 2128,
      "itted": 2129,
      "Ġactivities": 2130,
      "Ġchemical": 2131,
      "ann": 2132,
      "Ġnational": 2133,
      "Ġscience": 2134,
      "Ġparticip": 2135,
      "Ġlanguage": 2136,
      "cil": 2137,
      "Ġhalf": 2138,
      "Ġalready": 2139,
      "ĠOne": 2140,
      "Ġfamil": 2141,
      "Ġlive": 2142,
      "Ġwhole": 2143,
      "Ġast": 2144,
      "Ġhouse": 2145,
      "Ġalways": 2146,
      "Ġacross": 2147,
      "Ġglobal": 2148,
      "Ġtemperature": 2149,
      "ai": 2150,
      "Ġmag": 2151,
      "Ġsun": 2152,
      "Ġgroups": 2153,
      "Ġphysical": 2154,
      "bon": 2155,
      "Ġann": 2156,
      "Ġwhite": 2157,
      "Ġphot": 2158,
      "Ġanimals": 2159,
      "ĠAfric": 2160,
      "Ġkey": 2161,
      "Ġsix": 2162,
      "ĠII": 2163,
      "Ġwr": 2164,
      "Ġkill": 2165,
      "Ġaccording": 2166,
      "ĠAmerica": 2167,
      "sh": 2168,
      "omes": 2169,
      "Ġrelig": 2170,
      "What": 2171,
      "Ġri": 2172,
      "Ġsum": 2173,
      "af": 2174,
      "ches": 2175,
      "gest": 2176,
      "etimes": 2177,
      "Ġrecent": 2178,
      "Ġinteract": 2179,
      "Ġclaim": 2180,
      "overed": 2181,
      "het": 2182,
      "reg": 2183,
      "estern": 2184,
      "Ġfuture": 2185,
      "stitution": 2186,
      "Ġline": 2187,
      "Ġgas": 2188,
      "Ġstat": 2189,
      "Ġ197": 2190,
      "epend": 2191,
      "Ġfeel": 2192,
      "ĠState": 2193,
      "rought": 2194,
      "Ġquestion": 2195,
      "ttp": 2196,
      "Ġfish": 2197,
      "ump": 2198,
      "Ġcomplex": 2199,
      ".)": 2200,
      "Ġwind": 2201,
      "Ġinit": 2202,
      "chie": 2203,
      "iol": 2204,
      "Ġred": 2205,
      "Ġgive": 2206,
      "Ġconduct": 2207,
      "ĠDr": 2208,
      "Ġsize": 2209,
      "stitute": 2210,
      "14": 2211,
      "fer": 2212,
      "hing": 2213,
      "atures": 2214,
      "esc": 2215,
      "ribut": 2216,
      "Ġproduction": 2217,
      "Ġindic": 2218,
      "Ġgoing": 2219,
      "olec": 2220,
      "gress": 2221,
      "Ġwide": 2222,
      "Ġdest": 2223,
      "Ġmeet": 2224,
      "Ġsoft": 2225,
      "ĠHealth": 2226,
      "For": 2227,
      "Ã©": 2228,
      "Ġdia": 2229,
      "Ġmedical": 2230,
      "Ġdone": 2231,
      "ĠGen": 2232,
      "Ġ50": 2233,
      "Ġloss": 2234,
      "Ġonce": 2235,
      "ĠEnglish": 2236,
      "atives": 2237,
      "Ġrange": 2238,
      "Ġtext": 2239,
      "Ġtoward": 2240,
      "lex": 2241,
      "oman": 2242,
      "Ġmodern": 2243,
      "ĠResearch": 2244,
      "Ġfrequ": 2245,
      "Ġtaken": 2246,
      "Ġnature": 2247,
      "ĠMin": 2248,
      "ately": 2249,
      "16": 2250,
      "ĠPol": 2251,
      "ĠBl": 2252,
      "artment": 2253,
      "Ġpublished": 2254,
      "Ġconsidered": 2255,
      "like": 2256,
      "Ġcop": 2257,
      "ĠMar": 2258,
      "Ġprovides": 2259,
      "mpt": 2260,
      "Ġpatients": 2261,
      "Ġproducts": 2262,
      "reme": 2263,
      "Ġways": 2264,
      "Ġstates": 2265,
      "ĠCenter": 2266,
      "Ġneeded": 2267,
      "iddle": 2268,
      "30": 2269,
      "oes": 2270,
      "ae": 2271,
      "Ġrecogn": 2272,
      "//": 2273,
      "Ġbig": 2274,
      "Ġmakes": 2275,
      "Ġtool": 2276,
      "ĠAust": 2277,
      "Ġclose": 2278,
      "ĠCanad": 2279,
      "fact": 2280,
      "Ġreally": 2281,
      "order": 2282,
      "ĠAss": 2283,
      "ched": 2284,
      "oura": 2285,
      "amm": 2286,
      "Ġweight": 2287,
      "Ġdi": 2288,
      "ĠCons": 2289,
      "ĠJewish": 2290,
      "Ġwild": 2291,
      "aged": 2292,
      "Ġprograms": 2293,
      "ius": 2294,
      "Ġcame": 2295,
      "Ġcover": 2296,
      "Ġdom": 2297,
      "ĠCar": 2298,
      "augh": 2299,
      "Ġaccount": 2300,
      "How": 2301,
      "my": 2302,
      "ze": 2303,
      "Ġliving": 2304,
      "urch": 2305,
      "Ġrelative": 2306,
      "uel": 2307,
      "Ġinternational": 2308,
      "vere": 2309,
      "ried": 2310,
      "Ġcannot": 2311,
      "ney": 2312,
      "Ġtell": 2313,
      "Ġhold": 2314,
      "Ġbuilding": 2315,
      "inary": 2316,
      "ints": 2317,
      "ales": 2318,
      "Ġcollect": 2319,
      "Ġprinc": 2320,
      "Ġreason": 2321,
      "ĠShe": 2322,
      "ĠChina": 2323,
      "Ġmodel": 2324,
      "ences": 2325,
      "icine": 2326,
      "Ġ100": 2327,
      "Ġcontact": 2328,
      "Ġclimate": 2329,
      "Ġflu": 2330,
      "port": 2331,
      "Ġcoun": 2332,
      "Ġrepl": 2333,
      "urity": 2334,
      "Ġconcept": 2335,
      "xic": 2336,
      "Ġbehav": 2337,
      "Ġpay": 2338,
      "ĠCont": 2339,
      "Ġsuper": 2340,
      "Ġenvironmental": 2341,
      "roll": 2342,
      "ows": 2343,
      "Ġansw": 2344,
      "Ġcho": 2345,
      "Ġparts": 2346,
      "://": 2347,
      "atter": 2348,
      "Ġtot": 2349,
      "Ġdocu": 2350,
      "lying": 2351,
      "Ġalmost": 2352,
      "Ġcreated": 2353,
      "Ġidea": 2354,
      "org": 2355,
      "Ġanc": 2356,
      "acy": 2357,
      "Ġabs": 2358,
      "Ġproduce": 2359,
      "Ġissues": 2360,
      "Ġscientists": 2361,
      "Ġquestions": 2362,
      "Ġur": 2363,
      "Ġ25": 2364,
      "Ġtradition": 2365,
      "Ġrelated": 2366,
      "Ġrequired": 2367,
      "Ġvalue": 2368,
      "lt": 2369,
      "Ġdig": 2370,
      "Ġforms": 2371,
      "Ġentire": 2372,
      "Ġpotential": 2373,
      "Ġobserv": 2374,
      "dom": 2375,
      "Ġtown": 2376,
      "Ġlib": 2377,
      "Ġbusiness": 2378,
      "amb": 2379,
      "iple": 2380,
      "Ġperm": 2381,
      "Ġskin": 2382,
      "Ġinvolved": 2383,
      "Ġver": 2384,
      "Ġsense": 2385,
      "Ġport": 2386,
      "apan": 2387,
      "Ġregard": 2388,
      "Ġcomputer": 2389,
      "erous": 2390,
      "Ġcle": 2391,
      "igure": 2392,
      "Ġ11": 2393,
      "ĠDep": 2394,
      "Ġ196": 2395,
      "Ġconsum": 2396,
      "Ġtypes": 2397,
      "Ġmind": 2398,
      "Ġep": 2399,
      "umb": 2400,
      "Ġreported": 2401,
      "aut": 2402,
      "yl": 2403,
      "Ġbegan": 2404,
      "Ġblack": 2405,
      "ID": 2406,
      "ĠBy": 2407,
      "Ġsitu": 2408,
      "Ġtook": 2409,
      "Ġstri": 2410,
      "ĠJews": 2411,
      "mptoms": 2412,
      "ened": 2413,
      "Ġjud": 2414,
      "ification": 2415,
      "Ġweek": 2416,
      "cop": 2417,
      "ites": 2418,
      "Ġheart": 2419,
      "aching": 2420,
      "Ġactually": 2421,
      "Ġdetail": 2422,
      "Ġstandard": 2423,
      "Al": 2424,
      "Ġpage": 2425,
      "Ġsurv": 2426,
      "ER": 2427,
      "ym": 2428,
      "Ġmass": 2429,
      "ateg": 2430,
      "Ġcontain": 2431,
      "ĠChristian": 2432,
      "Ġparents": 2433,
      "ensive": 2434,
      "Ġ2010": 2435,
      "Ġachie": 2436,
      "sequ": 2437,
      "rab": 2438,
      "ĠKing": 2439,
      "ging": 2440,
      "Ġcr": 2441,
      "osure": 2442,
      "empt": 2443,
      "Ġintrodu": 2444,
      "view": 2445,
      "ĠPe": 2446,
      "ections": 2447,
      "ĠHist": 2448,
      "Ġreduce": 2449,
      "Ġaver": 2450,
      "ister": 2451,
      "Ġdisp": 2452,
      "Ġestablished": 2453,
      "Ġpriv": 2454,
      "ming": 2455,
      "Ġut": 2456,
      "Ġcamp": 2457,
      "Ġfa": 2458,
      "Ġstory": 2459,
      "Ġchall": 2460,
      "Ġcolor": 2461,
      "Ġopportun": 2462,
      "Ġens": 2463,
      "Ġjob": 2464,
      "Ġmemory": 2465,
      "Ġarticle": 2466,
      "Ch": 2467,
      "now": 2468,
      "aring": 2469,
      "acc": 2470,
      "Ġquality": 2471,
      "PA": 2472,
      "rect": 2473,
      "Ġsound": 2474,
      "ĠComp": 2475,
      "Ġimprove": 2476,
      "ober": 2477,
      "ery": 2478,
      "icles": 2479,
      "Ġyet": 2480,
      "ĠDav": 2481,
      "ĠWith": 2482,
      "Ġofficial": 2483,
      "Ġ2012": 2484,
      "Ġmeasure": 2485,
      "'re": 2486,
      "istance": 2487,
      "Ġability": 2488,
      "Ġmanagement": 2489,
      "oney": 2490,
      "Ġthroughout": 2491,
      "Ġmusic": 2492,
      "ĠAm": 2493,
      "Ġprevious": 2494,
      "Ġinterp": 2495,
      "Ġnecessary": 2496,
      "Ġpath": 2497,
      "chan": 2498,
      "ables": 2499,
      "Ġsure": 2500,
      "ĠNe": 2501,
      "ĠJapan": 2502,
      "izing": 2503,
      "Ġmaterials": 2504,
      "Ġengine": 2505,
      "sect": 2506,
      "ĠCD": 2507,
      "estic": 2508,
      "go": 2509,
      "Ġce": 2510,
      "ript": 2511,
      "ights": 2512,
      "Ġarch": 2513,
      "Ġ2008": 2514,
      "Ġshows": 2515,
      "Ġdemonst": 2516,
      "Ġunderstanding": 2517,
      "Ġsources": 2518,
      "eding": 2519,
      "Ġthreat": 2520,
      "ĠAfter": 2521,
      "Ġforce": 2522,
      "Ġdeveloping": 2523,
      "aches": 2524,
      "ĠJu": 2525,
      "ext": 2526,
      "Ġsam": 2527,
      "Ġfront": 2528,
      "Ġrate": 2529,
      "When": 2530,
      "inks": 2531,
      "urs": 2532,
      "Ġcontent": 2533,
      "Ġlink": 2534,
      "Ġliter": 2535,
      "oll": 2536,
      "Ġseries": 2537,
      "ington": 2538,
      "Ġconcent": 2539,
      "Ġaccept": 2540,
      "Ġcentral": 2541,
      "But": 2542,
      "Ġcit": 2543,
      "ising": 2544,
      "Ġrelationship": 2545,
      "25": 2546,
      "Ġsqu": 2547,
      "ille": 2548,
      "vey": 2549,
      "Ġapproach": 2550,
      "Ġdesigned": 2551,
      "Ġdoctor": 2552,
      "Ġpaper": 2553,
      "Ġemer": 2554,
      "Ġnuc": 2555,
      "ĠCo": 2556,
      "uls": 2557,
      "usion": 2558,
      "ĠGu": 2559,
      "Ġtraining": 2560,
      "Ġprovided": 2561,
      "ira": 2562,
      "ply": 2563,
      "ush": 2564,
      "Ġsea": 2565,
      "ĠNo": 2566,
      "Ġpractice": 2567,
      "Ġcivil": 2568,
      "Ġbar": 2569,
      "To": 2570,
      "Ġfile": 2571,
      "Ġdiv": 2572,
      "Ġlab": 2573,
      "ety": 2574,
      "Ġheav": 2575,
      "ĠStud": 2576,
      "Ġstudent": 2577,
      "ĠIndia": 2578,
      "Ġscientific": 2579,
      "__": 2580,
      "hest": 2581,
      "igation": 2582,
      "Ġsymptoms": 2583,
      "Ġwritten": 2584,
      "Ġtrue": 2585,
      "sych": 2586,
      "Ġprotein": 2587,
      "aries": 2588,
      "Ġexerc": 2589,
      "ccording": 2590,
      "mediate": 2591,
      "Ġmonths": 2592,
      "Ġgreater": 2593,
      "Ġir": 2594,
      "erve": 2595,
      "ume": 2596,
      "Ġeffective": 2597,
      "Ġearth": 2598,
      "):": 2599,
      "Ġled": 2600,
      "ription": 2601,
      "Ġshown": 2602,
      "ips": 2603,
      "Ġrecomm": 2604,
      "Ġgenetic": 2605,
      "Ġprison": 2606,
      "Ġfactors": 2607,
      "Ġassociated": 2608,
      ");": 2609,
      "Ġmor": 2610,
      "Ġreact": 2611,
      "Ġlot": 2612,
      "ival": 2613,
      "ĠViet": 2614,
      "Ġvisit": 2615,
      "haps": 2616,
      "Ġdeg": 2617,
      "Ġmaint": 2618,
      "Ġissue": 2619,
      "Ġstructure": 2620,
      "Ġaff": 2621,
      "arily": 2622,
      "Ġsett": 2623,
      "Ġbirth": 2624,
      "bre": 2625,
      "lege": 2626,
      "Ġever": 2627,
      "ĠPress": 2628,
      "ĠDNA": 2629,
      "ternal": 2630,
      "Ġproduced": 2631,
      "gram": 2632,
      "Ġelectric": 2633,
      "Ġmarket": 2634,
      "ĠCalif": 2635,
      "Ġmolec": 2636,
      "Ġhttp": 2637,
      "ĠMan": 2638,
      "ĠFran": 2639,
      "Ġincreasing": 2640,
      "ronic": 2641,
      "Ġterms": 2642,
      "amed": 2643,
      "ĠMore": 2644,
      "Ġheld": 2645,
      "Ġevents": 2646,
      "Ġbuilt": 2647,
      "Ġanalysis": 2648,
      "Ġtotal": 2649,
      "ST": 2650,
      "lam": 2651,
      "Ġvers": 2652,
      "Ġfri": 2653,
      "Ġgreen": 2654,
      "ching": 2655,
      "Ġstop": 2656,
      "ĠPer": 2657,
      "uman": 2658,
      "Ġadult": 2659,
      "reng": 2660,
      "uk": 2661,
      "Ġwhose": 2662,
      "www": 2663,
      "Ġ/": 2664,
      "Ġtheory": 2665,
      "Ġconc": 2666,
      "adem": 2667,
      "Ġviol": 2668,
      "Ġsimple": 2669,
      "Ġcontinued": 2670,
      "imately": 2671,
      "lies": 2672,
      "put": 2673,
      "asc": 2674,
      "Ġaltern": 2675,
      "Ġinteg": 2676,
      "Ġlonger": 2677,
      "life": 2678,
      "amin": 2679,
      "rial": 2680,
      "Ġmilitary": 2681,
      "Ġbasic": 2682,
      "Ġmeaning": 2683,
      "hood": 2684,
      "Ġself": 2685,
      "Ġcompl": 2686,
      "acks": 2687,
      "Ġvill": 2688,
      "Ġsearch": 2689,
      "Ġspread": 2690,
      "Ġtravel": 2691,
      "Ġmatter": 2692,
      "Ġdiet": 2693,
      "Ġuses": 2694,
      "ĠInstitute": 2695,
      "ĠMuslim": 2696,
      "uary": 2697,
      "Ġcut": 2698,
      "Ġdy": 2699,
      "Ġsoil": 2700,
      "Ġfru": 2701,
      "Ġthus": 2702,
      "ĠSec": 2703,
      "osition": 2704,
      "Ġmechan": 2705,
      "Ġoutside": 2706,
      "fully": 2707,
      "Ġrespect": 2708,
      "Ġminim": 2709,
      "attle": 2710,
      "dict": 2711,
      "nces": 2712,
      "Ġsouth": 2713,
      "Ġinj": 2714,
      "Ġhabit": 2715,
      "Ġthird": 2716,
      "Ġnorth": 2717,
      "cell": 2718,
      "ĠPark": 2719,
      "oses": 2720,
      "Ġimage": 2721,
      "ornia": 2722,
      "Ġlegal": 2723,
      "Ġcaused": 2724,
      "minist": 2725,
      "ĠBritish": 2726,
      "ners": 2727,
      "pro": 2728,
      "ening": 2729,
      "Ġlabor": 2730,
      "ached": 2731,
      "ĠInternational": 2732,
      "based": 2733,
      "pri": 2734,
      "Ġwriting": 2735,
      "Ġmovement": 2736,
      "Ġfamilies": 2737,
      "eration": 2738,
      "Ġcat": 2739,
      "Ġ2006": 2740,
      "rary": 2741,
      "inter": 2742,
      "Ġthous": 2743,
      "Ġevolution": 2744,
      "Ġcourt": 2745,
      "Ġnormal": 2746,
      "Â°": 2747,
      "Ġsection": 2748,
      "Ġdeb": 2749,
      "Ġrefer": 2750,
      "vention": 2751,
      "Ġtests": 2752,
      "Ġposition": 2753,
      "On": 2754,
      "Ġprec": 2755,
      "uck": 2756,
      "Ġcarbon": 2757,
      "Ġorigin": 2758,
      "Ġoriginal": 2759,
      "Ġtaking": 2760,
      "cean": 2761,
      "ĠHar": 2762,
      "ĠInter": 2763,
      "ressed": 2764,
      "Ġindepend": 2765,
      "Ġassess": 2766,
      "Ġaction": 2767,
      "Ġwall": 2768,
      "Ġbur": 2769,
      "Ġfat": 2770,
      "ĠRiver": 2771,
      "Ġtherefore": 2772,
      "Ġgene": 2773,
      "issions": 2774,
      "undred": 2775,
      "Ġdescribed": 2776,
      "Ġprobably": 2777,
      "You": 2778,
      "oor": 2779,
      "Ġbacter": 2780,
      "Ġdou": 2781,
      "utions": 2782,
      "ades": 2783,
      "Ġago": 2784,
      "199": 2785,
      "Ġavoid": 2786,
      "Ġseems": 2787,
      "rapy": 2788,
      "Ġaverage": 2789,
      "rast": 2790,
      "Ġ|": 2791,
      "Ġcy": 2792,
      "orders": 2793,
      "Ġpoll": 2794,
      "Ġ2011": 2795,
      "Ġbooks": 2796,
      "Ġparticularly": 2797,
      "Ġapplication": 2798,
      "Ġtax": 2799,
      "enc": 2800,
      "ĠSu": 2801,
      "ĠMe": 2802,
      "duc": 2803,
      "Ġcalc": 2804,
      "40": 2805,
      "aff": 2806,
      "ask": 2807,
      "ĠPres": 2808,
      "Ġvide": 2809,
      "ief": 2810,
      "Ġ40": 2811,
      "Ġattempt": 2812,
      "Ġcommunities": 2813,
      "Ġsometimes": 2814,
      "Ġpolicy": 2815,
      "mosp": 2816,
      "ĠScience": 2817,
      "Ġsoftware": 2818,
      "ES": 2819,
      "ilos": 2820,
      "ĠInt": 2821,
      "ĠIran": 2822,
      "Ġstreng": 2823,
      "ulf": 2824,
      "Ġcondition": 2825,
      "ĠJan": 2826,
      "ĠUN": 2827,
      "Ġquick": 2828,
      "Ġetc": 2829,
      "oon": 2830,
      "Ġbul": 2831,
      "Ġmount": 2832,
      "Ġlog": 2833,
      "Ġste": 2834,
      "pper": 2835,
      "Ġking": 2836,
      "Ġtrade": 2837,
      "Ġ2007": 2838,
      "dro": 2839,
      "ĠTra": 2840,
      "Ġgard": 2841,
      "uries": 2842,
      "Ġheat": 2843,
      "aving": 2844,
      "Ġincludes": 2845,
      "Ġbelieve": 2846,
      "Ġdiagn": 2847,
      "mon": 2848,
      "lands": 2849,
      "Ġestim": 2850,
      "iences": 2851,
      "ĠCalifornia": 2852,
      "uth": 2853,
      "Ġdeep": 2854,
      "udd": 2855,
      "Ġworkers": 2856,
      "rench": 2857,
      "Ġnumbers": 2858,
      "Ġcontinue": 2859,
      "ength": 2860,
      "Ġcauses": 2861,
      "ON": 2862,
      "Ġslow": 2863,
      "Ġmoney": 2864,
      "rael": 2865,
      "ĠGra": 2866,
      "Ġimplement": 2867,
      "Ġmethods": 2868,
      "lied": 2869,
      "ties": 2870,
      "Ġ,": 2871,
      "lease": 2872,
      "Ġthing": 2873,
      "ĠCong": 2874,
      "istics": 2875,
      "Ġcompared": 2876,
      "Ġemb": 2877,
      "Ġsimply": 2878,
      "Ġcapital": 2879,
      "ĠDepartment": 2880,
      "ores": 2881,
      "Ġhor": 2882,
      "ops": 2883,
      "Ġcoll": 2884,
      "Ġadditional": 2885,
      "Ġfederal": 2886,
      "arr": 2887,
      "ĠAnt": 2888,
      "aging": 2889,
      "Ġgenerally": 2890,
      "Ġeffic": 2891,
      "pril": 2892,
      "hold": 2893,
      "onse": 2894,
      "Ġhours": 2895,
      "âĢ¦": 2896,
      "ricult": 2897,
      "Ġ2009": 2898,
      "Ġpoor": 2899,
      "ĠIndian": 2900,
      "Ġcapac": 2901,
      "Ġtalk": 2902,
      "isms": 2903,
      "Ġbring": 2904,
      "Ġprimary": 2905,
      "Ġpict": 2906,
      "Ġcomes": 2907,
      "ribution": 2908,
      "Ġremov": 2909,
      "Ġpopular": 2910,
      "Ġculture": 2911,
      "Ġmagn": 2912,
      "Ġaid": 2913,
      "Ġsou": 2914,
      "ĠAg": 2915,
      "Ġalthough": 2916,
      "thern": 2917,
      "ĠChar": 2918,
      "Ġconsist": 2919,
      "Ġcapt": 2920,
      "Ġeye": 2921,
      "rans": 2922,
      "Ġface": 2923,
      "ĠApp": 2924,
      "Ġstra": 2925,
      "used": 2926,
      "Ġdecl": 2927,
      "Ġforest": 2928,
      "AT": 2929,
      "where": 2930,
      "Ġap": 2931,
      "Ġmix": 2932,
      "Ġnation": 2933,
      "istry": 2934,
      "Ġdefin": 2935,
      "Ġdrugs": 2936,
      "Ġlate": 2937,
      "ĠCount": 2938,
      "Ġsust": 2939,
      "Ġsequ": 2940,
      "ecause": 2941,
      "Ġjo": 2942,
      "ĠWhile": 2943,
      "22": 2944,
      "ns": 2945,
      "ino": 2946,
      "Ġbit": 2947,
      "ĠAc": 2948,
      "ĠWash": 2949,
      "ĠInf": 2950,
      "Ġgrowing": 2951,
      "ĠDevelop": 2952,
      "Ġpurp": 2953,
      "Ġcheck": 2954,
      "overy": 2955,
      "ĠPr": 2956,
      "Ġpattern": 2957,
      "Ġservices": 2958,
      "oly": 2959,
      "Ġmedia": 2960,
      "Ġappropri": 2961,
      "Ġservice": 2962,
      "Ġreceived": 2963,
      "ĠÂ": 2964,
      "alu": 2965,
      "Ġge": 2966,
      "ĠEd": 2967,
      "Ġfeet": 2968,
      "Ġvariety": 2969,
      "Ġdetermine": 2970,
      "Ġperformance": 2971,
      "Ġindustry": 2972,
      "Ġsat": 2973,
      "Ġsus": 2974,
      "ese": 2975,
      "Ġfib": 2976,
      "Ġhundred": 2977,
      "Ġonline": 2978,
      "ĠBo": 2979,
      "ĠWill": 2980,
      "ĠChild": 2981,
      "Ġincluded": 2982,
      "ĠAlthough": 2983,
      "Ġschools": 2984,
      "Ġbehind": 2985,
      "Ġbreak": 2986,
      "Ġaud": 2987,
      "Ġsuff": 2988,
      "Ġunc": 2989,
      "Ġnews": 2990,
      "Ġserious": 2991,
      "Ġindividuals": 2992,
      "Ġmother": 2993,
      "Ġlack": 2994,
      "Ġlaws": 2995,
      "Ġnearly": 2996,
      "Ġden": 2997,
      "ulated": 2998,
      "ĠJune": 2999,
      "ĠVal": 3000,
      "Ġdirectly": 3001,
      "Ġlimited": 3002,
      "Ġselect": 3003,
      "Ġregular": 3004,
      "Ġextreme": 3005,
      "ĠIsrael": 3006,
      "Ġbirds": 3007,
      "ĠEuropean": 3008,
      "Ġbr": 3009,
      "Ġec": 3010,
      "ulate": 3011,
      "Ġproced": 3012,
      "Ġspir": 3013,
      "Ġreflect": 3014,
      "arian": 3015,
      "Ġ24": 3016,
      "Ġbrought": 3017,
      "Ġtoxic": 3018,
      "Ġlost": 3019,
      "ĠMany": 3020,
      "ĠBar": 3021,
      "Ġ21": 3022,
      "Ġhimself": 3023,
      "Ġefforts": 3024,
      "Ġbeginning": 3025,
      "Ġdamage": 3026,
      "ĠDavid": 3027,
      "Ġox": 3028,
      "Ġsed": 3029,
      "isions": 3030,
      "ancy": 3031,
      "Ġmess": 3032,
      "light": 3033,
      "Ġwarm": 3034,
      "Ġexc": 3035,
      "abet": 3036,
      "Ġpersonal": 3037,
      "Ġidentify": 3038,
      "Ġsites": 3039,
      "eed": 3040,
      "see": 3041,
      "ĠPart": 3042,
      "ĠGl": 3043,
      "ellow": 3044,
      "Ġactive": 3045,
      "Ġexposure": 3046,
      "Ġveget": 3047,
      "ĠGerman": 3048,
      "ĠAustral": 3049,
      "Ġtree": 3050,
      "Ġmill": 3051,
      "Ġdog": 3052,
      "hern": 3053,
      "ĠMor": 3054,
      "rie": 3055,
      "aint": 3056,
      "Ġ2005": 3057,
      "Ġinstead": 3058,
      "rest": 3059,
      "Ġreve": 3060,
      "ĠIm": 3061,
      "ĠPar": 3062,
      "ĠFrench": 3063,
      "Ġcontains": 3064,
      "gency": 3065,
      "Ġbroad": 3066,
      "Ġspeak": 3067,
      "ey": 3068,
      "ony": 3069,
      "ises": 3070,
      "ĠAug": 3071,
      "ĠRuss": 3072,
      "ologies": 3073,
      "Ġadded": 3074,
      "Ġremain": 3075,
      "bor": 3076,
      "Ġfire": 3077,
      "ĠSchool": 3078,
      "term": 3079,
      "Ġprep": 3080,
      "IT": 3081,
      "Ġbab": 3082,
      "anced": 3083,
      "ĠCor": 3084,
      "Ġdead": 3085,
      "unting": 3086,
      "Ġwaters": 3087,
      "IN": 3088,
      "rance": 3089,
      "Ġtakes": 3090,
      "ĠSm": 3091,
      "ads": 3092,
      "Ġdeal": 3093,
      "Ġcompan": 3094,
      "Ġappe": 3095,
      "Ġagree": 3096,
      "icking": 3097,
      "Ġsafety": 3098,
      "uge": 3099,
      "Ġlives": 3100,
      "Ġprogress": 3101,
      "Ġlarger": 3102,
      "Ġreview": 3103,
      "ĠQu": 3104,
      "Ġclean": 3105,
      "Ġmicro": 3106,
      "ĠApril": 3107,
      "ĠMost": 3108,
      "Ġ194": 3109,
      "Ġdecre": 3110,
      "gypt": 3111,
      "Ġideas": 3112,
      "ĠAssoc": 3113,
      "ilosoph": 3114,
      "ĠWashington": 3115,
      "aul": 3116,
      "Ġtar": 3117,
      "ĠCity": 3118,
      "Ġwrite": 3119,
      "One": 3120,
      "Ġbal": 3121,
      "ctions": 3122,
      "ĠSee": 3123,
      "Ġatmosp": 3124,
      "orthern": 3125,
      "Ġdoing": 3126,
      "Ġhumans": 3127,
      "Ġcarry": 3128,
      "Ġprotection": 3129,
      "ĠJuly": 3130,
      "ground": 3131,
      "uous": 3132,
      "Ġmach": 3133,
      "omb": 3134,
      "Ġcompon": 3135,
      "hens": 3136,
      "Ġfactor": 3137,
      "Ġapplications": 3138,
      "And": 3139,
      "itation": 3140,
      "itte": 3141,
      "Ġfather": 3142,
      "ica": 3143,
      "Ġlands": 3144,
      "oles": 3145,
      "ida": 3146,
      "ĠCoun": 3147,
      "Ġshall": 3148,
      "inese": 3149,
      "Ġmiles": 3150,
      "Ġencoura": 3151,
      "ror": 3152,
      "wise": 3153,
      "Ġtur": 3154,
      "Ġwent": 3155,
      "Ġhom": 3156,
      "ils": 3157,
      "Ġord": 3158,
      "ift": 3159,
      "Ġimmediate": 3160,
      "Ġkids": 3161,
      "ĠEnvironment": 3162,
      "Ġanimal": 3163,
      "Ġpack": 3164,
      "Ġtransm": 3165,
      "erior": 3166,
      "edia": 3167,
      "cember": 3168,
      "Ġvict": 3169,
      "ĠNA": 3170,
      "ĠJes": 3171,
      "elling": 3172,
      "Ġevalu": 3173,
      "Ġdoesn": 3174,
      "Ġelse": 3175,
      "26": 3176,
      "OR": 3177,
      "inate": 3178,
      "Ġsal": 3179,
      "Ġwa": 3180,
      "ico": 3181,
      "asons": 3182,
      "Ġstream": 3183,
      "Ġrules": 3184,
      "ĠGree": 3185,
      "ĠOb": 3186,
      "ĠOct": 3187,
      "Ġrecently": 3188,
      "Ġdraw": 3189,
      "Ġcitiz": 3190,
      "AR": 3191,
      "pid": 3192,
      "rates": 3193,
      "xim": 3194,
      "Ġtend": 3195,
      "Ġcross": 3196,
      "orage": 3197,
      "itude": 3198,
      "ĠEgypt": 3199,
      "ĠWest": 3200,
      "Ġrout": 3201,
      "Ġcompet": 3202,
      "Ġinfection": 3203,
      "Ġgradu": 3204,
      "Ġreligious": 3205,
      "27": 3206,
      "AN": 3207,
      "CT": 3208,
      "vest": 3209,
      "Ġfav": 3210,
      "Ġexcept": 3211,
      "aces": 3212,
      "ĠFeb": 3213,
      "Ġwebs": 3214,
      "Ġacqu": 3215,
      "Ġsociety": 3216,
      "Ġreading": 3217,
      "Ġskills": 3218,
      "useum": 3219,
      "Ġlaun": 3220,
      "Ġbehavior": 3221,
      "Ġcra": 3222,
      "icated": 3223,
      "Ġnut": 3224,
      "Ġgenes": 3225,
      "Ġlargest": 3226,
      "Ġhealthy": 3227,
      "Ġnegative": 3228,
      "Ġessential": 3229,
      "Ġprivate": 3230,
      "olic": 3231,
      "ided": 3232,
      "ĠEast": 3233,
      "ĠJournal": 3234,
      "izations": 3235,
      "Ġvari": 3236,
      "Ġobjects": 3237,
      "ĠSociety": 3238,
      "Ġlayer": 3239,
      "na": 3240,
      "Ġhar": 3241,
      "Ġnamed": 3242,
      "odes": 3243,
      "Ġweb": 3244,
      "Ġadop": 3245,
      "ĠChinese": 3246,
      "Ġquite": 3247,
      "Ġresponse": 3248,
      "ography": 3249,
      "Ġdocument": 3250,
      "ari": 3251,
      "Ġmid": 3252,
      "ĠPre": 3253,
      "ĠEduc": 3254,
      "Ġsevere": 3255,
      "ĠLaw": 3256,
      "Ġcorrect": 3257,
      "Ġdiseases": 3258,
      "Ġproperty": 3259,
      "Ġsexual": 3260,
      "Ġtraditional": 3261,
      "bo": 3262,
      "Ġtrib": 3263,
      "Ġbra": 3264,
      "Ġformer": 3265,
      "ĠCast": 3266,
      "Ġsoon": 3267,
      "Ġdecision": 3268,
      "Ġoccurs": 3269,
      "Ġaffected": 3270,
      "EN": 3271,
      "come": 3272,
      "Ġbillion": 3273,
      "Ġfarm": 3274,
      "Ġfoot": 3275,
      "ĠPers": 3276,
      "Ġdifference": 3277,
      "Ġoccup": 3278,
      "fficient": 3279,
      "gar": 3280,
      "mat": 3281,
      "leb": 3282,
      "ĠCour": 3283,
      "Ġstru": 3284,
      "ĠHuman": 3285,
      "alled": 3286,
      "Ġoffer": 3287,
      "Ġdrive": 3288,
      "Ġsafe": 3289,
      "\",": 3290,
      "dd": 3291,
      "Ġsil": 3292,
      "orks": 3293,
      "Ġeight": 3294,
      "iles": 3295,
      "overty": 3296,
      "itting": 3297,
      "Ġsecurity": 3298,
      "Ġinside": 3299,
      "Ġsolar": 3300,
      "ĠJanuary": 3301,
      "80": 3302,
      "ls": 3303,
      "Ġbase": 3304,
      "Ġreach": 3305,
      "Ġlove": 3306,
      "ĠIS": 3307,
      "riage": 3308,
      "ternet": 3309,
      "Ġcenter": 3310,
      "Ġpopulations": 3311,
      "ĠIslam": 3312,
      "iology": 3313,
      "Ġcard": 3314,
      "Ġpsych": 3315,
      "Ġang": 3316,
      "ĠArt": 3317,
      "Ġveh": 3318,
      "ĠCouncil": 3319,
      "lor": 3320,
      "lier": 3321,
      "Ġsem": 3322,
      "oming": 3323,
      "ully": 3324,
      "ĠMarch": 3325,
      "illed": 3326,
      "Ġgetting": 3327,
      "Ġcoast": 3328,
      "ields": 3329,
      "Ġleaders": 3330,
      "gery": 3331,
      "Ġlooking": 3332,
      "ĠCanada": 3333,
      "ĠHistory": 3334,
      "IC": 3335,
      "more": 3336,
      "ĠArab": 3337,
      "ĠMet": 3338,
      "ĠGreat": 3339,
      "Ġ190": 3340,
      "Ġunique": 3341,
      "Ġallows": 3342,
      "Ġhydro": 3343,
      "Ġinvestig": 3344,
      "Ġcapacity": 3345,
      "Ġten": 3346,
      "Ġinn": 3347,
      "ider": 3348,
      "ander": 3349,
      "Ġacid": 3350,
      "Ġattention": 3351,
      "Ġlocation": 3352,
      "Ġlocated": 3353,
      "Ġ60": 3354,
      "Ġcopy": 3355,
      "abetes": 3356,
      "nown": 3357,
      "Ġmom": 3358,
      "enth": 3359,
      "ĠSch": 3360,
      "Ġult": 3361,
      "odies": 3362,
      "Ġcommerc": 3363,
      "Ġattack": 3364,
      "Ġhighly": 3365,
      "Ġtransport": 3366,
      "Ġanti": 3367,
      "ĠAugust": 3368,
      "29": 3369,
      "iers": 3370,
      "ps": 3371,
      "water": 3372,
      "yond": 3373,
      "Ġbott": 3374,
      "Ġinsect": 3375,
      "rote": 3376,
      "irm": 3377,
      "ĠHer": 3378,
      "ĠEl": 3379,
      "Ġshare": 3380,
      "ptember": 3381,
      "Ġimpl": 3382,
      "Ġanything": 3383,
      "Ġpolice": 3384,
      "ĠPhil": 3385,
      "Ġcou": 3386,
      "Ġcust": 3387,
      "ceed": 3388,
      "Ġseason": 3389,
      "aily": 3390,
      "Ġsupply": 3391,
      "Ġformed": 3392,
      "Ġcosts": 3393,
      "ĠTechn": 3394,
      "Ġplaces": 3395,
      "Ġteachers": 3396,
      "Ġchalleng": 3397,
      "He": 3398,
      "hy": 3399,
      "lin": 3400,
      "Ġaware": 3401,
      "Ġsch": 3402,
      "Ġstorage": 3403,
      "ĠOther": 3404,
      "Ġsyn": 3405,
      "Ġrock": 3406,
      "Ġobt": 3407,
      "Ġshowed": 3408,
      "iques": 3409,
      "Ġelements": 3410,
      "Ġinfluence": 3411,
      "king": 3412,
      "Ġwood": 3413,
      "Ġdang": 3414,
      "Ġund": 3415,
      "ĠRec": 3416,
      "Ġrot": 3417,
      "Ġextra": 3418,
      "Ġleading": 3419,
      "iverse": 3420,
      "Ġvirus": 3421,
      "ittee": 3422,
      "24": 3423,
      "Ġapplied": 3424,
      "Ġparty": 3425,
      "Ġplanet": 3426,
      "Ġbasis": 3427,
      "Ġmultiple": 3428,
      "yr": 3429,
      "yle": 3430,
      "Ġtum": 3431,
      "inct": 3432,
      "ona": 3433,
      "alination": 3434,
      "entially": 3435,
      "Ġgame": 3436,
      "Ġprint": 3437,
      "Ġinstit": 3438,
      "Ġstarted": 3439,
      "23": 3440,
      "Ġmental": 3441,
      "oted": 3442,
      "resp": 3443,
      "ĠEm": 3444,
      "These": 3445,
      "ension": 3446,
      "ĠVir": 3447,
      "Ġrare": 3448,
      "Ġblock": 3449,
      "Ġsurround": 3450,
      "ĠDecember": 3451,
      "Ġdevice": 3452,
      "Ġspeed": 3453,
      "Ġancient": 3454,
      "nes": 3455,
      "ufact": 3456,
      "roy": 3457,
      "ims": 3458,
      "iction": 3459,
      "Ġrequires": 3460,
      "ridge": 3461,
      "Ġcompletely": 3462,
      "Ġensure": 3463,
      "ĠPresident": 3464,
      "ban": 3465,
      "iples": 3466,
      "enic": 3467,
      "Ġlic": 3468,
      "ĠSol": 3469,
      "elt": 3470,
      "ĠMa": 3471,
      "romos": 3472,
      "ĠRed": 3473,
      "Ġ23": 3474,
      "Ġtransl": 3475,
      "Ġestablish": 3476,
      "Ġvideo": 3477,
      "iar": 3478,
      "iny": 3479,
      "isl": 3480,
      "Ġhands": 3481,
      "ster": 3482,
      "ĠSam": 3483,
      "Ġrates": 3484,
      "ĠUs": 3485,
      "Ġfeed": 3486,
      "Ġpatient": 3487,
      "ĠCommun": 3488,
      "Ġinterpret": 3489,
      "60": 3490,
      "edom": 3491,
      "Ġdry": 3492,
      "ĠTw": 3493,
      "Ġalone": 3494,
      "Ġrapid": 3495,
      "Ġcold": 3496,
      "Ġmonitor": 3497,
      "Ġmission": 3498,
      "Ġhon": 3499,
      "sec": 3500,
      "Ġforces": 3501,
      "ĠMass": 3502,
      "ĠBra": 3503,
      "abilities": 3504,
      "osing": 3505,
      "ĠNet": 3506,
      "Ġuser": 3507,
      "Ġdispl": 3508,
      "Ġproperties": 3509,
      "ospital": 3510,
      "Ġdevices": 3511,
      "ributed": 3512,
      "ĠAssociation": 3513,
      "At": 3514,
      "ÃŃ": 3515,
      "Ġwalk": 3516,
      "Ġmiddle": 3517,
      "Ġhost": 3518,
      "Ġbeg": 3519,
      "ĠMount": 3520,
      "Ġalle": 3521,
      "ĠGovern": 3522,
      "Ġrob": 3523,
      "lick": 3524,
      "Ġpoints": 3525,
      "ĠReg": 3526,
      "Ġeasily": 3527,
      "Ġillust": 3528,
      "Ġanswer": 3529,
      "iot": 3530,
      "year": 3531,
      "Ġgot": 3532,
      "ellect": 3533,
      "ĠMP": 3534,
      "ĠMon": 3535,
      "ounds": 3536,
      "Ġdepend": 3537,
      "Ġelectr": 3538,
      "udej": 3539,
      "Ġcritical": 3540,
      "ĠSocial": 3541,
      "Ġvirt": 3542,
      "Ġappropriate": 3543,
      "bur": 3544,
      "cks": 3545,
      "ero": 3546,
      "Ġlength": 3547,
      "ects": 3548,
      "ĠWater": 3549,
      "ruary": 3550,
      "Ġperhaps": 3551,
      "Ġexpand": 3552,
      "Ġremains": 3553,
      "Ġpersons": 3554,
      "Ġeasy": 3555,
      "ĠWilliam": 3556,
      "AL": 3557,
      "CC": 3558,
      "With": 3559,
      "aid": 3560,
      "book": 3561,
      "new": 3562,
      "rations": 3563,
      "Ġtiss": 3564,
      "Ġborn": 3565,
      "Ġfuel": 3566,
      "room": 3567,
      "Ġlif": 3568,
      "ĠServ": 3569,
      "Ġones": 3570,
      "oper": 3571,
      "ocr": 3572,
      "ocol": 3573,
      "Ġnothing": 3574,
      "ĠOf": 3575,
      "Ġquant": 3576,
      "ought": 3577,
      "Ġuseful": 3578,
      "Ġminutes": 3579,
      "Ġconflic": 3580,
      "Ġforeign": 3581,
      "Ġasked": 3582,
      "Ġachieve": 3583,
      "21": 3584,
      "oration": 3585,
      "Ġpen": 3586,
      "Ġlines": 3587,
      "Ġnight": 3588,
      "ĠSl": 3589,
      "Ġdisorders": 3590,
      "apter": 3591,
      "Ġmanufact": 3592,
      "ava": 3593,
      "ovember": 3594,
      "Ġprocessing": 3595,
      "Ġallowed": 3596,
      "Ġcurrently": 3597,
      "Ġargu": 3598,
      "Ġbacteria": 3599,
      "Ġsle": 3600,
      "verse": 3601,
      "ĠMudej": 3602,
      "ĠDo": 3603,
      "Ġtele": 3604,
      "ologist": 3605,
      "Ġreports": 3606,
      "ĠRepublic": 3607,
      "Ġtools": 3608,
      "35": 3609,
      "Ġx": 3610,
      "Ġcode": 3611,
      "icate": 3612,
      "Ġeat": 3613,
      "Ġtrack": 3614,
      "Ġpositive": 3615,
      "Ġfaith": 3616,
      "IV": 3617,
      "So": 3618,
      "uz": 3619,
      "inated": 3620,
      "Ġfoss": 3621,
      "ests": 3622,
      "ĠFirst": 3623,
      "Ġcompany": 3624,
      "Ġscreen": 3625,
      "Ġsmaller": 3626,
      "Ġsolution": 3627,
      "Ġlimit": 3628,
      "Ġbenefits": 3629,
      "Pro": 3630,
      "ky": 3631,
      "atur": 3632,
      "Ġson": 3633,
      "Ġfem": 3634,
      "Ġdied": 3635,
      "ĠMary": 3636,
      "ĠChurch": 3637,
      "airs": 3638,
      "Ġdemand": 3639,
      "Ġolder": 3640,
      "Ġquickly": 3641,
      "ĠCounty": 3642,
      "Ġcompanies": 3643,
      "ĠNASA": 3644,
      "Ġcred": 3645,
      "Ġeth": 3646,
      "Ġwhom": 3647,
      "ĠLib": 3648,
      "ipment": 3649,
      "phas": 3650,
      "Ġexpected": 3651,
      "Ġnumerous": 3652,
      "Ġvalues": 3653,
      "Ġweeks": 3654,
      "Ġhistorical": 3655,
      "Ġseparate": 3656,
      "ĠDevelopment": 3657,
      "rec": 3658,
      "itle": 3659,
      "Ġharm": 3660,
      "enty": 3661,
      "Ġgives": 3662,
      "Ġstar": 3663,
      "ĠBudd": 3664,
      "resh": 3665,
      "Ġarri": 3666,
      "Ġsaw": 3667,
      "ĠUnion": 3668,
      "Ġhelps": 3669,
      "Ġdiscovered": 3670,
      "Ġequal": 3671,
      "Ġstrength": 3672,
      "ET": 3673,
      "asion": 3674,
      "amer": 3675,
      "ocks": 3676,
      "Ġrule": 3677,
      "Ġadminist": 3678,
      "Ġbecomes": 3679,
      "Ġinstruct": 3680,
      "Ġresponsible": 3681,
      "Ġtrying": 3682,
      "Ġexercise": 3683,
      "Ġsustain": 3684,
      "fect": 3685,
      "orge": 3686,
      "Ġpul": 3687,
      "Ġmut": 3688,
      "Ġgave": 3689,
      "ĠSan": 3690,
      "ems": 3691,
      "Ġvacc": 3692,
      "ĠProt": 3693,
      "Ġprocesses": 3694,
      "ancial": 3695,
      "Ġtarget": 3696,
      "vant": 3697,
      "wide": 3698,
      "zing": 3699,
      "Ġfully": 3700,
      "ĠAlex": 3701,
      "Ġaspect": 3702,
      "ĠBer": 3703,
      "Ġadj": 3704,
      "Ġroom": 3705,
      "Ġgoal": 3706,
      "Ġimportance": 3707,
      "Ġwebsite": 3708,
      "70": 3709,
      "AS": 3710,
      "RE": 3711,
      "aly": 3712,
      "Ġmis": 3713,
      "ĠCom": 3714,
      "rome": 3715,
      "Ġcommunication": 3716,
      "Ġrespond": 3717,
      "Ġorganization": 3718,
      "ham": 3719,
      "Ġsold": 3720,
      "Ġcool": 3721,
      "Ġpow": 3722,
      "Ġfight": 3723,
      "Ġfert": 3724,
      "Ġdark": 3725,
      "Ġhot": 3726,
      "pped": 3727,
      "Ġhair": 3728,
      "astic": 3729,
      "Ġearlier": 3730,
      "Ġtesting": 3731,
      "Ġslight": 3732,
      "ĠSeptember": 3733,
      "Ġeffort": 3734,
      "Ġdetermined": 3735,
      "Ġcultural": 3736,
      "Ġproviding": 3737,
      "Ġprior": 3738,
      "ĠAfrica": 3739,
      "ĠJesus": 3740,
      "ĠCourt": 3741,
      "ellectual": 3742,
      "Ġwrote": 3743,
      "Ġphen": 3744,
      "Ġfinal": 3745,
      "Ġmob": 3746,
      "Ġdate": 3747,
      "Ġreasons": 3748,
      "ĠAccording": 3749,
      "ĠBa": 3750,
      "ĠDis": 3751,
      "ĠNow": 3752,
      "ĠGo": 3753,
      "uster": 3754,
      "inson": 3755,
      "Ġadvant": 3756,
      "Ġeconomy": 3757,
      "Ġinteresting": 3758,
      "Ġfigure": 3759,
      "ingu": 3760,
      "idel": 3761,
      "iments": 3762,
      "ĠSim": 3763,
      "Ġstress": 3764,
      "pping": 3765,
      "Ġchance": 3766,
      "ĠLord": 3767,
      "Ġimag": 3768,
      "rupt": 3769,
      "Ġpeace": 3770,
      "Ġtrad": 3771,
      "Ġ2004": 3772,
      "Ġtechniques": 3773,
      "ĠRev": 3774,
      "Ġmeasures": 3775,
      "Ġmajority": 3776,
      "Ġsummer": 3777,
      "ĠTex": 3778,
      "Ġpregn": 3779,
      "Ġoffic": 3780,
      "ĠAmericans": 3781,
      "Ġconstruct": 3782,
      "Ġtreated": 3783,
      "Ġgarden": 3784,
      "Ġcommercial": 3785,
      "rant": 3786,
      "hel": 3787,
      "ama": 3788,
      "Ġvent": 3789,
      "oyal": 3790,
      "rane": 3791,
      "Ġmilk": 3792,
      "Ġmotor": 3793,
      "Ġbenefit": 3794,
      "Ġsteps": 3795,
      "Ġceleb": 3796,
      "Ġthousands": 3797,
      "ĠFebruary": 3798,
      "mar": 3799,
      "time": 3800,
      "itis": 3801,
      "Ġdaily": 3802,
      "Ġsomeone": 3803,
      "Ġattract": 3804,
      "Ġtechnologies": 3805,
      "Ġprojects": 3806,
      "Ġanaly": 3807,
      "Ġexisting": 3808,
      "Ġplaced": 3809,
      "Ġcitizens": 3810,
      "IS": 3811,
      "rs": 3812,
      "Ġsand": 3813,
      "aled": 3814,
      "ĠCivil": 3815,
      "ĠPat": 3816,
      "ĠBecause": 3817,
      "ĠDuring": 3818,
      "Ġkid": 3819,
      "Ġagricult": 3820,
      "Ġdesalination": 3821,
      "Ġcollection": 3822,
      "Ġexamples": 3823,
      "ĠRead": 3824,
      "Ġphysic": 3825,
      "Ġtrial": 3826,
      "Ġconstant": 3827,
      "rolled": 3828,
      "Ġobserved": 3829,
      "cial": 3830,
      "do": 3831,
      "ha": 3832,
      "Ã¡": 3833,
      "Ġbad": 3834,
      "icip": 3835,
      "Ġtold": 3836,
      "set": 3837,
      "idents": 3838,
      "ĠMy": 3839,
      "rian": 3840,
      "ĠInc": 3841,
      "Ġ195": 3842,
      "Ġworked": 3843,
      "Ġthinking": 3844,
      "Ġstatus": 3845,
      "Ġsituation": 3846,
      "Ġelectricity": 3847,
      "Some": 3848,
      "gal": 3849,
      "Ġpp": 3850,
      "Ġexact": 3851,
      "ession": 3852,
      "ĠJames": 3853,
      "ensity": 3854,
      "Ġnuclear": 3855,
      "ED": 3856,
      "bit": 3857,
      "cles": 3858,
      "Ġban": 3859,
      "Ġder": 3860,
      "ĠMich": 3861,
      "ĠMex": 3862,
      "Ġneigh": 3863,
      "Ġoffers": 3864,
      "Ġflood": 3865,
      "Ġfollowed": 3866,
      "Ġreleased": 3867,
      "Ġalternative": 3868,
      "Ġdoub": 3869,
      "oo": 3870,
      "off": 3871,
      "ura": 3872,
      "Ġpoverty": 3873,
      "aling": 3874,
      "ĠHigh": 3875,
      "Ġshape": 3876,
      "Ġimages": 3877,
      "ĠProgram": 3878,
      "wards": 3879,
      "Ġserver": 3880,
      "Ġmaxim": 3881,
      "Ġreduced": 3882,
      "Ġsuccessful": 3883,
      "ĠPlan": 3884,
      "Ġradiation": 3885,
      "Ġfailure": 3886,
      "Ġteacher": 3887,
      "Ġconducted": 3888,
      "Ġofficials": 3889,
      "Ġbeyond": 3890,
      "ĠSw": 3891,
      "Ġrul": 3892,
      "ĠOff": 3893,
      "Ġadapt": 3894,
      "achuse": 3895,
      "Ġpresence": 3896,
      "Ġfeatures": 3897,
      "Ġmember": 3898,
      "Ġchemicals": 3899,
      "Ġdiabetes": 3900,
      "Ġspirit": 3901,
      "ximately": 3902,
      "inical": 3903,
      "Ġsect": 3904,
      "Ġwon": 3905,
      "Ġpet": 3906,
      "Ġbodies": 3907,
      "ĠSer": 3908,
      "antic": 3909,
      "Ġjournal": 3910,
      "Ġcommand": 3911,
      "rence": 3912,
      "Ġdiscrim": 3913,
      "Ġsigns": 3914,
      "iency": 3915,
      "Ġhyp": 3916,
      "ĠFlor": 3917,
      "Ġriver": 3918,
      "32": 3919,
      "tts": 3920,
      "uff": 3921,
      "erson": 3922,
      "oday": 3923,
      "Ġtruth": 3924,
      "Ġfindings": 3925,
      "Ġrunning": 3926,
      "ĠAfrican": 3927,
      "ĠPeople": 3928,
      "Ġstrugg": 3929,
      "achusetts": 3930,
      "known": 3931,
      "oke": 3932,
      "Ġtou": 3933,
      "Ġfear": 3934,
      "leton": 3935,
      "Ġupper": 3936,
      "Ġstay": 3937,
      "ria": 3938,
      "ĠFrance": 3939,
      "Ġweather": 3940,
      "izes": 3941,
      "irection": 3942,
      "Ġincreases": 3943,
      "Ġstandards": 3944,
      "Ġreceive": 3945,
      "Ġadults": 3946,
      "ford": 3947,
      "Ġfair": 3948,
      "Ġnative": 3949,
      "Ġvit": 3950,
      "ĠWestern": 3951,
      "ĠThus": 3952,
      "Ġpret": 3953,
      "Ġqual": 3954,
      "Ġpresident": 3955,
      "Ġeverything": 3956,
      "Ġorganizations": 3957,
      "Ġhighest": 3958,
      "ĠMedicine": 3959,
      "related": 3960,
      "Ġopportunity": 3961,
      "Ġdegree": 3962,
      "Ġpurpose": 3963,
      "'ve": 3964,
      "ias": 3965,
      "rew": 3966,
      "oring": 3967,
      "ĠAre": 3968,
      "ĠNovember": 3969,
      "Ġcompar": 3970,
      "Ġemp": 3971,
      "Ġremained": 3972,
      "ĠConf": 3973,
      "ĠSystem": 3974,
      "Ġfiles": 3975,
      "36": 3976,
      "45": 3977,
      "OS": 3978,
      "Un": 3979,
      "ht": 3980,
      "Ġpages": 3981,
      "Ġhope": 3982,
      "ĠMc": 3983,
      "ĠRet": 3984,
      "ĠFound": 3985,
      "They": 3986,
      "asses": 3987,
      "ĠKe": 3988,
      "Ġconservation": 3989,
      "Ġoffice": 3990,
      "Ġphilosoph": 3991,
      "Ġemphas": 3992,
      "Ġgoes": 3993,
      "Ġautom": 3994,
      "Ġinsp": 3995,
      "Ġtrees": 3996,
      "Ġclearly": 3997,
      "Ġappears": 3998,
      "Ġdestroy": 3999,
      "Ġutil": 4000,
      "Ġestimated": 4001,
      "ĠOctober": 4002,
      "Ġmoment": 4003,
      "Ġbran": 4004,
      "oud": 4005,
      "Ġnames": 4006,
      "Ġconver": 4007,
      "ĠMod": 4008,
      "ifically": 4009,
      "Ġcoming": 4010,
      "Ġenh": 4011,
      "ellig": 4012,
      "ender": 4013,
      "Ġinform": 4014,
      "Ġsurvey": 4015,
      "ĠProv": 4016,
      "Ġstrateg": 4017,
      "Ġpassed": 4018,
      "respond": 4019,
      "rehens": 4020,
      "Ġbound": 4021,
      "ara": 4022,
      "Ġmention": 4023,
      "ula": 4024,
      "osy": 4025,
      "Ġrise": 4026,
      "Ġjur": 4027,
      "ĠKore": 4028,
      "Ġrepe": 4029,
      "Ġ2000": 4030,
      "ĠAsia": 4031,
      "ĠCollege": 4032,
      "Ġletters": 4033,
      "Ġeyes": 4034,
      "Ġsubstance": 4035,
      "hetic": 4036,
      "Ġschol": 4037,
      "che": 4038,
      "reet": 4039,
      "semb": 4040,
      "ĠBay": 4041,
      "aced": 4042,
      "ĠRef": 4043,
      "ĠFrom": 4044,
      "ibl": 4045,
      "Ġquar": 4046,
      "erved": 4047,
      "Ġ2003": 4048,
      "Ġemissions": 4049,
      "clus": 4050,
      "Ġequipment": 4051,
      "Ġtypically": 4052,
      "Ġproposed": 4053,
      "Ġstructures": 4054,
      "Ġprofessor": 4055,
      "ĠCongress": 4056,
      "yp": 4057,
      "ndom": 4058,
      "Ġmal": 4059,
      "Ġmiss": 4060,
      "Ġhous": 4061,
      "Ġadm": 4062,
      "Ġbelieved": 4063,
      "Ġsuggests": 4064,
      "what": 4065,
      "Ġgrant": 4066,
      "Ġdrink": 4067,
      "Ġdigital": 4068,
      "Ġbaby": 4069,
      "ĠEducation": 4070,
      "37": 4071,
      "Ex": 4072,
      "met": 4073,
      "pris": 4074,
      "ux": 4075,
      "itable": 4076,
      "ĠSur": 4077,
      "âĢ¢": 4078,
      "Ġconsequ": 4079,
      "ĠNot": 4080,
      "Ġnoted": 4081,
      "Ġexposed": 4082,
      "Ġtransfer": 4083,
      "Ġconstruction": 4084,
      "Ġsediment": 4085,
      "men": 4086,
      "Ġbond": 4087,
      "Ġmig": 4088,
      "ibly": 4089,
      "Ġpredict": 4090,
      "Ġ2002": 4091,
      "Ġdecades": 4092,
      "Ġdiscover": 4093,
      "Ġcarried": 4094,
      "hemat": 4095,
      "Ġcommonly": 4096,
      "Ġlateral": 4097,
      "Ġconnection": 4098,
      "28": 4099,
      "38": 4100,
      "ees": 4101,
      "equ": 4102,
      "joy": 4103,
      "su": 4104,
      "head": 4105,
      "Ġpric": 4106,
      "Ġlat": 4107,
      "Ġstorm": 4108,
      "que": 4109,
      "ĠEven": 4110,
      "Ġmemb": 4111,
      "Ġcoord": 4112,
      "eech": 4113,
      "ĠEngland": 4114,
      "Ġfinancial": 4115,
      "Ġprisoners": 4116,
      "ĠChildren": 4117,
      "gment": 4118,
      "ken": 4119,
      "rees": 4120,
      "Ġtherapy": 4121,
      "Ġwond": 4122,
      "ĠSince": 4123,
      "ĠMars": 4124,
      "Ġcontrast": 4125,
      "Ġroad": 4126,
      "Ġregions": 4127,
      "Ġmedicine": 4128,
      "ĠProf": 4129,
      "Ġchanged": 4130,
      "ĠGeneral": 4131,
      "ĠFranc": 4132,
      "iat": 4133,
      "Ġtable": 4134,
      "Ġtub": 4135,
      "Ġdivid": 4136,
      "Ġlinks": 4137,
      "Ġnor": 4138,
      "ĠAv": 4139,
      "ĠHere": 4140,
      "Ġexhib": 4141,
      "ĠGreen": 4142,
      "fficking": 4143,
      "Ġdisorder": 4144,
      "Ġexperien": 4145,
      "Ġenter": 4146,
      "pective": 4147,
      "Ġtowards": 4148,
      "ĠMassachusetts": 4149,
      "back": 4150,
      "works": 4151,
      "ying": 4152,
      "Ġocean": 4153,
      "erg": 4154,
      "Ġegg": 4155,
      "omy": 4156,
      "uted": 4157,
      "rief": 4158,
      "rust": 4159,
      "Ġrandom": 4160,
      "Ġdifferences": 4161,
      "Ġdistribution": 4162,
      "ĠCommission": 4163,
      "porary": 4164,
      "Ġmaintain": 4165,
      "Ġfruit": 4166,
      "enge": 4167,
      "ĠPaul": 4168,
      "Ġspeech": 4169,
      "ĠJud": 4170,
      "Ġintellectual": 4171,
      "ĠIts": 4172,
      "Ġdescription": 4173,
      "Ġfoods": 4174,
      "Ġload": 4175,
      "Ġkilled": 4176,
      "encies": 4177,
      "ĠTexas": 4178,
      "cious": 4179,
      "Ġtour": 4180,
      "Ġmap": 4181,
      "Ġbeaut": 4182,
      "Ġstars": 4183,
      "ĠTheir": 4184,
      "ĠDec": 4185,
      "Ġdesp": 4186,
      "ĠYour": 4187,
      "Ġsolid": 4188,
      "ĠSpec": 4189,
      "While": 4190,
      "Ġannual": 4191,
      "ĠVietnam": 4192,
      "iant": 4193,
      "Ġtim": 4194,
      "Ġsn": 4195,
      "Ġsong": 4196,
      "Ġswe": 4197,
      "itect": 4198,
      "Ġdu": 4199,
      "Ġisn": 4200,
      "ĠMil": 4201,
      "istant": 4202,
      "arts": 4203,
      "ĠJer": 4204,
      "ously": 4205,
      "Ġ2001": 4206,
      "Ġanyone": 4207,
      "Ġsurgery": 4208,
      "ĠAtl": 4209,
      "Ġrecorded": 4210,
      "ĠEnvironmental": 4211,
      "Ġsleep": 4212,
      "cast": 4213,
      "Ġcities": 4214,
      "itness": 4215,
      "Ġpan": 4216,
      "Ġball": 4217,
      "ĠTrans": 4218,
      "eters": 4219,
      "ĠCO": 4220,
      "ĠDay": 4221,
      "ĠUnder": 4222,
      "Ġresistance": 4223,
      "Ġcolon": 4224,
      "Ġexpect": 4225,
      "Ġpoly": 4226,
      "ĠAlso": 4227,
      "Ġapproaches": 4228,
      "Ġrecords": 4229,
      "Ġindustrial": 4230,
      "copation": 4231,
      "Ġheavy": 4232,
      "Ġfavor": 4233,
      "bl": 4234,
      "bed": 4235,
      "ipl": 4236,
      "iable": 4237,
      "Ġcast": 4238,
      "isher": 4239,
      "ĠWork": 4240,
      "Ġteeth": 4241,
      "Ġsynd": 4242,
      "ĠProject": 4243,
      "Ġdistance": 4244,
      "Ġdidn": 4245,
      "Ġoperations": 4246,
      "Ġidentified": 4247,
      "Ġelection": 4248,
      "Ġtemperatures": 4249,
      "Ġprinciples": 4250,
      "Ġversion": 4251,
      "HE": 4252,
      "aign": 4253,
      "Ġcry": 4254,
      "Ġfix": 4255,
      "Ġleave": 4256,
      "ĠUse": 4257,
      "Ġcontext": 4258,
      "Ġreprodu": 4259,
      "Ġ189": 4260,
      "Ġcorrespond": 4261,
      "ĠWeb": 4262,
      "Ġlegisl": 4263,
      "Ġeducational": 4264,
      "Ġopportunities": 4265,
      "Ġfriend": 4266,
      "Ġindependent": 4267,
      "aur": 4268,
      "orpor": 4269,
      "Ġmo": 4270,
      "Ġdirection": 4271,
      "Ġlived": 4272,
      "Ġstaff": 4273,
      "ĠPublic": 4274,
      "ĠDem": 4275,
      "Ġ22": 4276,
      "Ġ28": 4277,
      "Ġrich": 4278,
      "ĠLake": 4279,
      "Ġworth": 4280,
      "Ġyouth": 4281,
      "Ġscale": 4282,
      "ondon": 4283,
      "Ġexpress": 4284,
      "Ġexperiment": 4285,
      "Ġfunctions": 4286,
      "Ġinterested": 4287,
      "Ġturned": 4288,
      "Ġcreating": 4289,
      "ĠCharles": 4290,
      "iance": 4291,
      "ygen": 4292,
      "Ã¶": 4293,
      "ania": 4294,
      "Ġgir": 4295,
      "Ġforward": 4296,
      "Ġconv": 4297,
      "ĠHunting": 4298,
      "ĠRoman": 4299,
      "Ġseven": 4300,
      "Ġplans": 4301,
      "Ġinterf": 4302,
      "Ġassign": 4303,
      "Ġlearned": 4304,
      "Ġbox": 4305,
      "Ġbelong": 4306,
      "Ġmarriage": 4307,
      "load": 4308,
      "Ġwidely": 4309,
      "Ġrelatively": 4310,
      "Ġhabitat": 4311,
      "ĠInformation": 4312,
      "Ġphenomen": 4313,
      "BC": 4314,
      "cra": 4315,
      "rig": 4316,
      "orph": 4317,
      "ĠAng": 4318,
      "unn": 4319,
      "Ġleaves": 4320,
      "Ġpowerful": 4321,
      "ĠSpace": 4322,
      "Ġmoving": 4323,
      "ping": 4324,
      "Ġice": 4325,
      "Ġbreat": 4326,
      "Ġbeds": 4327,
      "ste": 4328,
      "Ġnations": 4329,
      "ĠMD": 4330,
      "ĠMiddle": 4331,
      "terior": 4332,
      "istan": 4333,
      "ĠRel": 4334,
      "Ġchronic": 4335,
      "ĠInternet": 4336,
      "apers": 4337,
      "iece": 4338,
      "Ġarticles": 4339,
      "Ġvision": 4340,
      "ĠPhys": 4341,
      "force": 4342,
      "Ġbalance": 4343,
      "ĠBuddh": 4344,
      "AC": 4345,
      "Ar": 4346,
      "erate": 4347,
      "Ġcrop": 4348,
      "Ġstories": 4349,
      "Ġapproximately": 4350,
      "Ġopin": 4351,
      "Ġdescribe": 4352,
      "Ġcombination": 4353,
      "Ġpicture": 4354,
      "htm": 4355,
      "89": 4356,
      "After": 4357,
      "Sc": 4358,
      "bi": 4359,
      "band": 4360,
      "cont": 4361,
      "Â·": 4362,
      "inf": 4363,
      "Ġwestern": 4364,
      "char": 4365,
      "igen": 4366,
      "Ġconstitution": 4367,
      "Ġvot": 4368,
      "Ġvary": 4369,
      "ĠWild": 4370,
      "Ġrang": 4371,
      "Ġspring": 4372,
      "Ġperman": 4373,
      "Ġstudied": 4374,
      "Ġinstru": 4375,
      "iox": 4376,
      "Ġstatement": 4377,
      "Ġoccurred": 4378,
      "Ġpurch": 4379,
      "Ġauthorities": 4380,
      "Ġemployment": 4381,
      "ĠFlorida": 4382,
      "All": 4383,
      "hors": 4384,
      "Ġwoman": 4385,
      "Ġmer": 4386,
      "Ġround": 4387,
      "Ġpartners": 4388,
      "Ġunf": 4389,
      "Ġupd": 4390,
      "obe": 4391,
      "Ġactual": 4392,
      "Ġhelped": 4393,
      "Ġdistinct": 4394,
      "Ġ70": 4395,
      "Ġproteins": 4396,
      "Ġeventually": 4397,
      "ĠGeorge": 4398,
      "Ġmeeting": 4399,
      "Ġrecommend": 4400,
      "house": 4401,
      "mium": 4402,
      "wing": 4403,
      "Ġgiving": 4404,
      "ĠPal": 4405,
      "Ġexcess": 4406,
      "Ġ27": 4407,
      "ears": 4408,
      "Ġusers": 4409,
      "ensus": 4410,
      "Ġdefined": 4411,
      "Ġcorn": 4412,
      "Ġ1990": 4413,
      "ographic": 4414,
      "Ġdiscussion": 4415,
      "Ġvillage": 4416,
      "ĠTechnology": 4417,
      "By": 4418,
      "SI": 4419,
      "Ġwest": 4420,
      "Ġpump": 4421,
      "arrow": 4422,
      "Ġdim": 4423,
      "Ġ26": 4424,
      "Ġweak": 4425,
      "ĠInst": 4426,
      "Ġ186": 4427,
      "ĠConstitution": 4428,
      "Ġgeneration": 4429,
      "Ġbreast": 4430,
      "Ġperformed": 4431,
      "Ġfreedom": 4432,
      "Ġbiological": 4433,
      "Ġprofessional": 4434,
      "Ġviolence": 4435,
      "Ġfibers": 4436,
      "Ġlandsc": 4437,
      "Ġcustom": 4438,
      "dad": 4439,
      "Ġi": 4440,
      "Ġsort": 4441,
      "isation": 4442,
      "Ġpestic": 4443,
      "Ġfif": 4444,
      "etics": 4445,
      "ĠCur": 4446,
      "unction": 4447,
      "ĠLabor": 4448,
      "ribute": 4449,
      "Ġformal": 4450,
      "Ġreference": 4451,
      "ĠArch": 4452,
      "Ġvisual": 4453,
      "Ġpractices": 4454,
      "ĠCentral": 4455,
      "Ġinvolve": 4456,
      "ĠGermany": 4457,
      "Ġiniti": 4458,
      "aughter": 4459,
      "Ġatmosphere": 4460,
      "ĠMPa": 4461,
      "Ġconflict": 4462,
      "OT": 4463,
      "greg": 4464,
      "uild": 4465,
      "xual": 4466,
      "yal": 4467,
      "isp": 4468,
      "Ġpip": 4469,
      "ana": 4470,
      "Ġlatter": 4471,
      "Ġnorthern": 4472,
      "ram": 4473,
      "ĠCap": 4474,
      "ado": 4475,
      "ĠEach": 4476,
      "ĠOs": 4477,
      "Ġnovel": 4478,
      "Ġinstance": 4479,
      "Ġcoal": 4480,
      "Ġelim": 4481,
      "Ġrelease": 4482,
      "Ġimmune": 4483,
      "aught": 4484,
      "Ġmessage": 4485,
      "HA": 4486,
      "aus": 4487,
      "onal": 4488,
      "Ġcateg": 4489,
      "Ġinher": 4490,
      "ett": 4491,
      "ĠHen": 4492,
      "Ġnote": 4493,
      "ĠGr": 4494,
      "Ġenjoy": 4495,
      "Ġmeant": 4496,
      "Ġacadem": 4497,
      "Ġ2013": 4498,
      "Ġ1999": 4499,
      "Ġvolunt": 4500,
      "Ġcounter": 4501,
      "Ġjobs": 4502,
      "Ġremoved": 4503,
      "Ġextremely": 4504,
      "Ġchallenges": 4505,
      "Ġdisplay": 4506,
      "Ġfossil": 4507,
      "II": 4508,
      "can": 4509,
      "iations": 4510,
      "Ġfields": 4511,
      "aria": 4512,
      "Ġhuge": 4513,
      "Ġconvers": 4514,
      "ĠPM": 4515,
      "Ġvia": 4516,
      "ĠDar": 4517,
      "ĠFin": 4518,
      "ĠLat": 4519,
      "ĠOur": 4520,
      "Ġpresc": 4521,
      "Ġexpert": 4522,
      "Ġpresented": 4523,
      "Ġclaims": 4524,
      "Ġfrequently": 4525,
      "However": 4526,
      "Ġdetails": 4527,
      "Ġintroduced": 4528,
      "rieved": 4529,
      "RA": 4530,
      "See": 4531,
      "ih": 4532,
      "zy": 4533,
      "Ġign": 4534,
      "Ġwinter": 4535,
      "iling": 4536,
      "Ġstage": 4537,
      "Ġexec": 4538,
      "ĠDes": 4539,
      "ĠFederal": 4540,
      "ĠLife": 4541,
      "Ġclim": 4542,
      "Ġoverall": 4543,
      "exam": 4544,
      "Ġimpacts": 4545,
      "ĠIranian": 4546,
      "Ġaudio": 4547,
      "ĠGovernment": 4548,
      "33": 4549,
      "lar": 4550,
      "tical": 4551,
      "Ġsen": 4552,
      "orial": 4553,
      "Ġfig": 4554,
      "Ġinh": 4555,
      "icit": 4556,
      "omas": 4557,
      "iding": 4558,
      "Ġstored": 4559,
      "abapt": 4560,
      "riz": 4561,
      "Ġwaste": 4562,
      "ivation": 4563,
      "Ġcontem": 4564,
      "Ġapply": 4565,
      "ologists": 4566,
      "Ġsymb": 4567,
      "ception": 4568,
      "Ġexperts": 4569,
      "ĠEnergy": 4570,
      "Ġrevolution": 4571,
      "Ġflowers": 4572,
      "Ġcharacteristics": 4573,
      "Ġconcerned": 4574,
      "Ġpreviously": 4575,
      "Ġtissue": 4576,
      "ĠFoundation": 4577,
      "Many": 4578,
      "comm": 4579,
      "ios": 4580,
      "war": 4581,
      "Ġ=": 4582,
      "itz": 4583,
      "Ġgain": 4584,
      "ulating": 4585,
      "Ġprohib": 4586,
      "ĠThen": 4587,
      "ĠBible": 4588,
      "ache": 4589,
      "ĠNatural": 4590,
      "Ġdiss": 4591,
      "Ġperfect": 4592,
      "Ġarmy": 4593,
      "Ġschem": 4594,
      "Ġrelation": 4595,
      "Ġcounty": 4596,
      "rolog": 4597,
      "Ġviews": 4598,
      "Ġefficient": 4599,
      "Ġimmediately": 4600,
      "Ġdiscrimination": 4601,
      "CA": 4602,
      "win": 4603,
      "Ġ...": 4604,
      "eria": 4605,
      "Ġbattle": 4606,
      "Ġfresh": 4607,
      "omic": 4608,
      "Ġgal": 4609,
      "ĠAN": 4610,
      "iform": 4611,
      "Ġspect": 4612,
      "ghdad": 4613,
      "elled": 4614,
      "ords": 4615,
      "Ġrace": 4616,
      "Ġdetect": 4617,
      "Ġmodels": 4618,
      "Ġbackground": 4619,
      "Ġshowing": 4620,
      "Ġplanning": 4621,
      "Ġchanging": 4622,
      "Ġcircum": 4623,
      "Ġancest": 4624,
      "Ġfriends": 4625,
      "ĠMuslims": 4626,
      "Te": 4627,
      "ded": 4628,
      "Ġesc": 4629,
      "Ġfast": 4630,
      "Ġliqu": 4631,
      "idity": 4632,
      "umber": 4633,
      "ĠFore": 4634,
      "Ġchurch": 4635,
      "rick": 4636,
      "Ġexpression": 4637,
      "Ġremember": 4638,
      "Ġresulting": 4639,
      "Ġexplain": 4640,
      "Ġrequirements": 4641,
      "Ġmoved": 4642,
      "Ġreferred": 4643,
      "Ġbottom": 4644,
      "Ph": 4645,
      "rum": 4646,
      "Ġwin": 4647,
      "Ġreb": 4648,
      "umin": 4649,
      "Ġheard": 4650,
      "ĠDirect": 4651,
      "ĠEv": 4652,
      "earing": 4653,
      "Ġcontract": 4654,
      "Ġbecoming": 4655,
      "Ġmostly": 4656,
      "Ġsubm": 4657,
      "Ġcreation": 4658,
      "Ġfinally": 4659,
      "Ġletter": 4660,
      "'ll": 4661,
      "From": 4662,
      "Ġcards": 4663,
      "Ġmos": 4664,
      "ĠTur": 4665,
      "olved": 4666,
      "Ġforced": 4667,
      "ĠMo": 4668,
      "ĠMuseum": 4669,
      "ĠDan": 4670,
      "ocal": 4671,
      "ĠOver": 4672,
      "Ġresource": 4673,
      "Ġarm": 4674,
      "ishing": 4675,
      "Ġemail": 4676,
      "cycl": 4677,
      "Ġauthors": 4678,
      "Ġkept": 4679,
      "Ġeveryone": 4680,
      "Ġfinding": 4681,
      "Ġcontinues": 4682,
      "Ġserved": 4683,
      "Ġpolicies": 4684,
      "Ġnegot": 4685,
      "Ġreturned": 4686,
      "Although": 4687,
      "Ġcampaign": 4688,
      "ĠAustralia": 4689,
      "Ġmachine": 4690,
      "ĠVirgin": 4691,
      "Ġslightly": 4692,
      "34": 4693,
      "Ġinput": 4694,
      "Ġdial": 4695,
      "ctic": 4696,
      "Ġhem": 4697,
      "Ġsufficient": 4698,
      "ĠEmp": 4699,
      "Ġintended": 4700,
      "Ġsave": 4701,
      "Ġfeature": 4702,
      "Ġgrand": 4703,
      "Ġgets": 4704,
      "Ġcompleted": 4705,
      "Ġorganisms": 4706,
      "Ġ1995": 4707,
      "Ġdirector": 4708,
      "espite": 4709,
      "Ġpromote": 4710,
      "Ġfacilities": 4711,
      "Ġdomestic": 4712,
      "Ġregarding": 4713,
      "Ġsquare": 4714,
      "Ġoxygen": 4715,
      "ĠGreek": 4716,
      "ĠService": 4717,
      "ding": 4718,
      "fort": 4719,
      "ped": 4720,
      "Ġpit": 4721,
      "Ġpal": 4722,
      "astern": 4723,
      "Ġrenew": 4724,
      "Ġlung": 4725,
      "Ġisland": 4726,
      "iring": 4727,
      "ament": 4728,
      "Ġrat": 4729,
      "ĠLondon": 4730,
      "Ġspent": 4731,
      "osexual": 4732,
      "Ġsynt": 4733,
      "Ġconsists": 4734,
      "Ġdecided": 4735,
      "Ġminor": 4736,
      "ĠIsland": 4737,
      "Ġtrend": 4738,
      "Ġcritic": 4739,
      "Ġillness": 4740,
      "Ġwildlife": 4741,
      "Ġnucle": 4742,
      "Ġmolecules": 4743,
      "ĠAcadem": 4744,
      "Ġkidney": 4745,
      "Ġmaximum": 4746,
      "Is": 4747,
      "LE": 4748,
      "eer": 4749,
      "senic": 4750,
      "tra": 4751,
      "uit": 4752,
      "west": 4753,
      "well": 4754,
      "Ġcand": 4755,
      "Ġwet": 4756,
      "Ġband": 4757,
      "Ġbone": 4758,
      "Ġreality": 4759,
      "ĠAut": 4760,
      "amental": 4761,
      "umn": 4762,
      "unk": 4763,
      "ĠLear": 4764,
      "ogen": 4765,
      "aped": 4766,
      "Ġjoint": 4767,
      "Ġtraffic": 4768,
      "Ġ300": 4769,
      "Ġfamous": 4770,
      "Ġcausing": 4771,
      "Ġbrother": 4772,
      "spec": 4773,
      "Ġpatterns": 4774,
      ".'": 4775,
      "78": 4776,
      "co": 4777,
      "inity": 4778,
      "Ġcru": 4779,
      "itors": 4780,
      "icon": 4781,
      "Ġthick": 4782,
      "ams": 4783,
      "illing": 4784,
      "ogue": 4785,
      "Ġshut": 4786,
      "aks": 4787,
      "Ġcomprehens": 4788,
      "Ġarr": 4789,
      "âĢĿ.": 4790,
      "risis": 4791,
      "Ġbelief": 4792,
      "Ġimproved": 4793,
      "Ġconnect": 4794,
      "Ġoptions": 4795,
      "Ġdynam": 4796,
      "Ġadvantage": 4797,
      "ĠMexico": 4798,
      "31": 4799,
      "ault": 4800,
      "rat": 4801,
      "ville": 4802,
      "yt": 4803,
      "Ġsav": 4804,
      "itler": 4805,
      "Ġinternal": 4806,
      "Ġmere": 4807,
      "Ġreached": 4808,
      "olf": 4809,
      "Ġstore": 4810,
      "Ġhaz": 4811,
      "Ġmanner": 4812,
      "Ġunivers": 4813,
      "Ġprefer": 4814,
      "ĠVol": 4815,
      "Ġunderst": 4816,
      "ossible": 4817,
      "Ġextent": 4818,
      "Ġorganic": 4819,
      "Ġoperating": 4820,
      "Ġelement": 4821,
      "ortunately": 4822,
      "Ġinfluen": 4823,
      "ĠCanadian": 4824,
      "Ġlinked": 4825,
      "ĠRetrieved": 4826,
      "Ġdivided": 4827,
      "55": 4828,
      "cus": 4829,
      "rition": 4830,
      "Ġ:": 4831,
      "Ġcere": 4832,
      "Ġpun": 4833,
      "Ġdat": 4834,
      "Ġisol": 4835,
      "olid": 4836,
      "otic": 4837,
      "ĠCath": 4838,
      "Ġconvent": 4839,
      "ĠMr": 4840,
      "Ġalt": 4841,
      "ocation": 4842,
      "Ġactions": 4843,
      "Ġexpressed": 4844,
      "Ġcenturies": 4845,
      "198": 4846,
      "Ġmathemat": 4847,
      "ifying": 4848,
      "ĠMedical": 4849,
      "idden": 4850,
      "Ġconnected": 4851,
      "Res": 4852,
      "lers": 4853,
      "mal": 4854,
      "pat": 4855,
      "Ġille": 4856,
      "Ġcamer": 4857,
      "Ġnit": 4858,
      "Ġstim": 4859,
      "erences": 4860,
      "Ġ29": 4861,
      "ĠLa": 4862,
      "ĠJust": 4863,
      "eces": 4864,
      "apes": 4865,
      "ager": 4866,
      "ructure": 4867,
      "Ġresulted": 4868,
      "Ġserve": 4869,
      "Ġoperation": 4870,
      "Ġsuggested": 4871,
      "Ġrelevant": 4872,
      "Ġsignificantly": 4873,
      "Ġconcepts": 4874,
      "Ġdocuments": 4875,
      "Ġdegrees": 4876,
      "Ġpollution": 4877,
      "DA": 4878,
      "den": 4879,
      "Ġpray": 4880,
      "Ġplease": 4881,
      "Ġpiece": 4882,
      "alle": 4883,
      "Ġhop": 4884,
      "iled": 4885,
      "ĠTest": 4886,
      "ota": 4887,
      "ĠCamb": 4888,
      "ĠHIV": 4889,
      "abil": 4890,
      "Ġvote": 4891,
      "Ġroyal": 4892,
      "Ġcolle": 4893,
      "Ġreform": 4894,
      "Ġpractical": 4895,
      "Ġdiscussed": 4896,
      "going": 4897,
      "Ġarchitect": 4898,
      "romosome": 4899,
      "osystem": 4900,
      "New": 4901,
      "down": 4902,
      "ev": 4903,
      "Ġpaid": 4904,
      "Ġeast": 4905,
      "oma": 4906,
      "rag": 4907,
      "ifies": 4908,
      "that": 4909,
      "Ġexcell": 4910,
      "acher": 4911,
      "ĠRights": 4912,
      "key": 4913,
      "Ġchief": 4914,
      "Ġspin": 4915,
      "ĠJon": 4916,
      "oster": 4917,
      "Ġemot": 4918,
      "Ġformation": 4919,
      "Ġgoals": 4920,
      "Ġsecret": 4921,
      "Ġpatent": 4922,
      "Ġtechnique": 4923,
      "Ġmeasured": 4924,
      "Ġeastern": 4925,
      "Ġauthority": 4926,
      "Ġcombined": 4927,
      "Ġwrong": 4928,
      "Ġinitial": 4929,
      "Ġprepared": 4930,
      "ĠObject": 4931,
      "Ġlicens": 4932,
      "Now": 4933,
      "vity": 4934,
      "Ġtro": 4935,
      "Ġaim": 4936,
      "heric": 4937,
      "ĠBen": 4938,
      "ĠDiv": 4939,
      "ĠRich": 4940,
      "ĠRober": 4941,
      "ĠLou": 4942,
      "aste": 4943,
      "Ġpred": 4944,
      "Ġinvent": 4945,
      "Ġeffectively": 4946,
      "That": 4947,
      "Ġcontinuous": 4948,
      "rison": 4949,
      "Ġbird": 4950,
      "Ġterrit": 4951,
      "Ġradio": 4952,
      "Ġmorning": 4953,
      "Ġprocedures": 4954,
      "Ġinnov": 4955,
      "Ġmonitoring": 4956,
      "Ġdespite": 4957,
      "Ġsyndrome": 4958,
      "nic": 4959,
      "Ġdro": 4960,
      "ĠSub": 4961,
      "admium": 4962,
      "essor": 4963,
      "Ġvast": 4964,
      "Ġclos": 4965,
      "Ġarrest": 4966,
      "reatment": 4967,
      "Ġremove": 4968,
      "Ġboard": 4969,
      "Ġreduction": 4970,
      "standing": 4971,
      "Ġcharge": 4972,
      "Ġguide": 4973,
      "ĠSea": 4974,
      "Ġlimits": 4975,
      "Ġeasier": 4976,
      "which": 4977,
      "Ġsubstant": 4978,
      "Ġparticipants": 4979,
      "Ġreligion": 4980,
      "Ġchoice": 4981,
      "mingb": 4982,
      "ĠCompany": 4983,
      "Ġappeared": 4984,
      "ĠBaghdad": 4985,
      "Ġsector": 4986,
      "Ġprices": 4987,
      "craft": 4988,
      "According": 4989,
      "OL": 4990,
      "bal": 4991,
      "mark": 4992,
      "ĠSign": 4993,
      "Ġstation": 4994,
      "Ġstated": 4995,
      "ĠMal": 4996,
      "Ġsugar": 4997,
      "akers": 4998,
      "Ġteach": 4999,
      "Ġnewsp": 5000,
      "issure": 5001,
      "Ġspecifically": 5002,
      "Ġphr": 5003,
      "Ġmovements": 5004,
      "Ġlanguages": 5005,
      "Ġconcern": 5006,
      "Ġsamples": 5007,
      "ĠOffice": 5008,
      "ĠKorea": 5009,
      "cyclop": 5010,
      "90": 5011,
      "Most": 5012,
      "hma": 5013,
      "jo": 5014,
      "pus": 5015,
      "Ã³": 5016,
      "alse": 5017,
      "Ġfine": 5018,
      "level": 5019,
      "Ġnode": 5020,
      "imal": 5021,
      "ĠCop": 5022,
      "Ġstem": 5023,
      "Ġcolors": 5024,
      "Ġdistrict": 5025,
      "Ġgovernments": 5026,
      "ĠSyn": 5027,
      "Ġannoun": 5028,
      "Ġreaction": 5029,
      "Ġsequence": 5030,
      "Ġmillions": 5031,
      "Ġexperienced": 5032,
      "Be": 5033,
      "ii": 5034,
      "Ġsick": 5035,
      "Ġcore": 5036,
      "Ġwife": 5037,
      "Ġwww": 5038,
      "ingly": 5039,
      "ĠMat": 5040,
      "usal": 5041,
      "ĠWind": 5042,
      "ĠJe": 5043,
      "Ġcontaining": 5044,
      "ague": 5045,
      "Ġincorpor": 5046,
      "berg": 5047,
      "Ġteaching": 5048,
      "Ġroot": 5049,
      "ĠWhite": 5050,
      "clusion": 5051,
      "Ġlargely": 5052,
      "Ġantib": 5053,
      "Ġsaying": 5054,
      "Ġtypical": 5055,
      "Ġhappens": 5056,
      "Ġprimarily": 5057,
      "Ġsentence": 5058,
      "Ġtells": 5059,
      "Ġabsor": 5060,
      "Ġbegins": 5061,
      "idelines": 5062,
      "ĠEmpire": 5063,
      "ship": 5064,
      "itud": 5065,
      "Ġburn": 5066,
      "ĠSun": 5067,
      "ĠSuch": 5068,
      "ulin": 5069,
      "iful": 5070,
      "Ġunit": 5071,
      "Ġscen": 5072,
      "Ġobvious": 5073,
      "Ġprice": 5074,
      "Ġ45": 5075,
      "Ġorganized": 5076,
      "Ġcareer": 5077,
      "ĠOrgan": 5078,
      "Ġfram": 5079,
      "ĠIII": 5080,
      "Ġbehavi": 5081,
      "Ġportion": 5082,
      "Ġchallenge": 5083,
      "Ġsample": 5084,
      "Ġliterature": 5085,
      "Ġrelationships": 5086,
      "Ġdefinition": 5087,
      "Ġelectrical": 5088,
      "Ġpermanent": 5089,
      "Gen": 5090,
      "des": 5091,
      "rich": 5092,
      "wood": 5093,
      "ĠÃ": 5094,
      "Ġsac": 5095,
      "Ġtow": 5096,
      "rogen": 5097,
      "Ġhur": 5098,
      "ĠSen": 5099,
      "ĠSal": 5100,
      "Ġhear": 5101,
      "ĠElect": 5102,
      "Ġweap": 5103,
      "Ġphone": 5104,
      "Ġassum": 5105,
      "Ġsupplies": 5106,
      "Ġprotocol": 5107,
      "Ġleader": 5108,
      "Ġ80": 5109,
      "Ġ90": 5110,
      "Ġtried": 5111,
      "Ġamounts": 5112,
      "ognitive": 5113,
      "Ġcouncil": 5114,
      "ĠJapanese": 5115,
      "Ġhundreds": 5116,
      "Ġcomponents": 5117,
      "Ġadopted": 5118,
      "48": 5119,
      "75": 5120,
      "Americ": 5121,
      "CL": 5122,
      "Sp": 5123,
      "no": 5124,
      "Ġbrief": 5125,
      "Ġhus": 5126,
      "Ġstyle": 5127,
      "ada": 5128,
      "ĠBro": 5129,
      "ĠHouse": 5130,
      "osen": 5131,
      "ĠDist": 5132,
      "ĠGre": 5133,
      "Ġsports": 5134,
      "Ġship": 5135,
      "Ġcollege": 5136,
      "ĠCommittee": 5137,
      "Ġmuscle": 5138,
      "Ġplayed": 5139,
      "Ġfrequency": 5140,
      "Ġconsumption": 5141,
      "Ġsounds": 5142,
      "Ġminimum": 5143,
      "Ġwalls": 5144,
      "CD": 5145,
      "Cl": 5146,
      "EL": 5147,
      "IG": 5148,
      "iner": 5149,
      "Ġpi": 5150,
      "Ġbed": 5151,
      "Ġhit": 5152,
      "ulum": 5153,
      "Ġanterior": 5154,
      "ĠBrown": 5155,
      "Ġcomment": 5156,
      "Ġves": 5157,
      "ĠFurther": 5158,
      "Ġspl": 5159,
      "Ġspot": 5160,
      "Ġcontribut": 5161,
      "ormal": 5162,
      "Ġinfected": 5163,
      "Ġacts": 5164,
      "Ġaccur": 5165,
      "Ġtested": 5166,
      "ĠAnabapt": 5167,
      "Ġsetting": 5168,
      "Ġcapable": 5169,
      "Ġgreatly": 5170,
      "Ġinterests": 5171,
      "Ġhousehold": 5172,
      "Ġreplace": 5173,
      "Ġchoose": 5174,
      "Ġsouthern": 5175,
      "Ġprocedure": 5176,
      "Ġcomponent": 5177,
      "Ġlaunch": 5178,
      "ĠNetwork": 5179,
      "Ġfertil": 5180,
      "Ġmembrane": 5181,
      "ĠFrancisc": 5182,
      "ĠHenry": 5183,
      "39": 5184,
      "DP": 5185,
      "More": 5186,
      "oe": 5187,
      "xts": 5188,
      "Ġtrou": 5189,
      "heim": 5190,
      "atform": 5191,
      "Ġsnow": 5192,
      "ancing": 5193,
      "Ġnarr": 5194,
      "othes": 5195,
      "ĠMill": 5196,
      "osite": 5197,
      "Ġheight": 5198,
      "Ġleaving": 5199,
      "Ġclinical": 5200,
      "Ġmeat": 5201,
      "Ġraised": 5202,
      "Ġsurf": 5203,
      "Ġsurpris": 5204,
      "Ġ500": 5205,
      "Ġdiscovery": 5206,
      "Ġjustice": 5207,
      "Ġreducing": 5208,
      "Ġstarting": 5209,
      "ĠColor": 5210,
      "Ġbuildings": 5211,
      "Ġrecommended": 5212,
      "Ġhydrogen": 5213,
      "Ġfemale": 5214,
      "Ġhouses": 5215,
      "ĠLouis": 5216,
      "DS": 5217,
      "hu": 5218,
      "long": 5219,
      "rigation": 5220,
      "tic": 5221,
      "reed": 5222,
      "Ġsend": 5223,
      "itter": 5224,
      "Ġmouth": 5225,
      "Ġmale": 5226,
      "Ġdrop": 5227,
      "Ġrecept": 5228,
      "ceived": 5229,
      "ĠSom": 5230,
      "osph": 5231,
      "Ġnotes": 5232,
      "Ġincome": 5233,
      "Ġ31": 5234,
      "Ġblue": 5235,
      "Ġhelping": 5236,
      "Ġsupported": 5237,
      "Ġadvice": 5238,
      "ĠColumb": 5239,
      "Ġconcerns": 5240,
      "Ġsuperior": 5241,
      "Ġselected": 5242,
      "Ġharvest": 5243,
      "ocratic": 5244,
      "Ġadjust": 5245,
      "AP": 5246,
      "ball": 5247,
      "eor": 5248,
      "part": 5249,
      "rating": 5250,
      "Ġtask": 5251,
      "Ġcovered": 5252,
      "Ġfaster": 5253,
      "Ġmic": 5254,
      "Ġnarrow": 5255,
      "ĠHitler": 5256,
      "Ġvo": 5257,
      "ĠDon": 5258,
      "ĠRad": 5259,
      "ortion": 5260,
      "oston": 5261,
      "Ġkm": 5262,
      "Ġotherwise": 5263,
      "Ġju": 5264,
      "Ġparties": 5265,
      "Ġimpossible": 5266,
      "Ġinfections": 5267,
      "ĠKh": 5268,
      "Ġconsult": 5269,
      "Ġknew": 5270,
      "Ġoffered": 5271,
      "Ġsupposed": 5272,
      "Ġallowing": 5273,
      "Ġissued": 5274,
      "Ġproperly": 5275,
      "Ġtrust": 5276,
      "Ġnetworks": 5277,
      "Ġhappen": 5278,
      "Ġprofession": 5279,
      "ĠBritain": 5280,
      "Ġfamiliar": 5281,
      "Ġhoriz": 5282,
      "Ġvehicles": 5283,
      "Ġrapidly": 5284,
      "Ġaspects": 5285,
      "Ġdoubt": 5286,
      "Ġwonder": 5287,
      "Ġsymbol": 5288,
      ",'": 5289,
      "During": 5290,
      "ares": 5291,
      "avery": 5292,
      "bing": 5293,
      "cher": 5294,
      "erals": 5295,
      "ishes": 5296,
      "Ġple": 5297,
      "Ġfell": 5298,
      "Ġtomat": 5299,
      "Ġeating": 5300,
      "ĠChe": 5301,
      "ĠMem": 5302,
      "Ġyellow": 5303,
      "agers": 5304,
      "aker": 5305,
      "Ġsomewhat": 5306,
      "Ġrain": 5307,
      "Ġtrig": 5308,
      "Ġsubsequ": 5309,
      "Ġparticles": 5310,
      "Ġ1998": 5311,
      "Ġadvoc": 5312,
      "Ġwanted": 5313,
      "Ġtopics": 5314,
      "Ġdoctors": 5315,
      "Ġmolecular": 5316,
      "Ġassessment": 5317,
      "Ġsusp": 5318,
      "pre": 5319,
      "inations": 5320,
      "Ġsections": 5321,
      "Ġfro": 5322,
      "anish": 5323,
      "Ġdaughter": 5324,
      "Ġhospital": 5325,
      "ilit": 5326,
      "ompl": 5327,
      "Ġles": 5328,
      "Ġnav": 5329,
      "Ġonto": 5330,
      "ĠBoth": 5331,
      "Ġunless": 5332,
      "âĢĿ,": 5333,
      "Ġdecisions": 5334,
      "Ġcalls": 5335,
      "ĠWhy": 5336,
      "ĠArmy": 5337,
      "ĠScient": 5338,
      "Ġpromot": 5339,
      "Ġgrass": 5340,
      "Ġindicate": 5341,
      "Ġemergency": 5342,
      "Ġconclud": 5343,
      "Ġcollabor": 5344,
      "Ġwarming": 5345,
      "Ġvegetables": 5346,
      "ĠRussia": 5347,
      "Ġtumor": 5348,
      "ĠVirginia": 5349,
      "46": 5350,
      "BS": 5351,
      "CE": 5352,
      "IA": 5353,
      "OM": 5354,
      "Other": 5355,
      "bach": 5356,
      "chers": 5357,
      "oral": 5358,
      "Ġdoll": 5359,
      "Ġgar": 5360,
      "ĠBel": 5361,
      "ĠHung": 5362,
      "resents": 5363,
      "Ġhearing": 5364,
      "ĠDef": 5365,
      "ĠRo": 5366,
      "ĠGal": 5367,
      "Ġintellig": 5368,
      "Ġoutput": 5369,
      "Ġfloor": 5370,
      "ictor": 5371,
      "Ġfacts": 5372,
      "Ġbuy": 5373,
      "Ġclassroom": 5374,
      "Ġmarine": 5375,
      "Ġidentity": 5376,
      "Ġopened": 5377,
      "aimed": 5378,
      "Ġfilm": 5379,
      "Ġexistence": 5380,
      "Ġlayers": 5381,
      "Ġvolume": 5382,
      "Ġkinds": 5383,
      "ĠParkinson": 5384,
      "Ġvictims": 5385,
      "Ġinsects": 5386,
      "Ġinstitutions": 5387,
      "Ġmoist": 5388,
      "Ġliquid": 5389,
      "UN": 5390,
      "col": 5391,
      "ype": 5392,
      "zen": 5393,
      "Ġtitle": 5394,
      "Ġsalt": 5395,
      "Ġcrim": 5396,
      "Ġcrisis": 5397,
      "Ġwitness": 5398,
      "Ġmist": 5399,
      "urd": 5400,
      "uration": 5401,
      "Ġfort": 5402,
      "ĠIra": 5403,
      "Ġexternal": 5404,
      "Ġappoint": 5405,
      "Ġaccomp": 5406,
      "Ġmode": 5407,
      "Ġinstall": 5408,
      "Ġextensive": 5409,
      "Ġgravel": 5410,
      "Ġcorrel": 5411,
      "Ġrisks": 5412,
      "Ġflower": 5413,
      "Ġfunding": 5414,
      "zech": 5415,
      "Ġcycle": 5416,
      "Ġacademic": 5417,
      "Ġgalax": 5418,
      "Ab": 5419,
      "gl": 5420,
      "ij": 5421,
      "Ġath": 5422,
      "indu": 5423,
      "Ġther": 5424,
      "Ġped": 5425,
      "Ġlies": 5426,
      "Ġnine": 5427,
      "Ġvul": 5428,
      "ĠUp": 5429,
      "Ġuniverse": 5430,
      "ĠStand": 5431,
      "Ġ35": 5432,
      "ovak": 5433,
      "Ġhummingb": 5434,
      "Ġseek": 5435,
      "Ġpossibility": 5436,
      "iveness": 5437,
      "Ġruns": 5438,
      "Ġ1980": 5439,
      "Ġfailed": 5440,
      "Ġrecognized": 5441,
      "ĠCarol": 5442,
      "Ġmeasurements": 5443,
      "Ġprecise": 5444,
      "Ġcredit": 5445,
      "Ġstrategies": 5446,
      "Ġscholars": 5447,
      "iatric": 5448,
      "ĠRobert": 5449,
      "tle": 5450,
      "upp": 5451,
      "yn": 5452,
      "ini": 5453,
      "aters": 5454,
      "Ġpure": 5455,
      "Ġmel": 5456,
      "outhern": 5457,
      "ĠTor": 5458,
      "ĠToday": 5459,
      "Ġgyr": 5460,
      "change": 5461,
      "Ġconstit": 5462,
      "isted": 5463,
      "ĠBoston": 5464,
      "Ġnotice": 5465,
      "Ġcloth": 5466,
      "Ġunits": 5467,
      "bert": 5468,
      "ĠKen": 5469,
      "Ġcenters": 5470,
      "ĠSciences": 5471,
      "Ġexplore": 5472,
      "comp": 5473,
      "Ġpotentially": 5474,
      "Ġinflamm": 5475,
      "Ġlooks": 5476,
      "Ġnormally": 5477,
      "Ġfundamental": 5478,
      "Ġinteractions": 5479,
      "Ġprincip": 5480,
      "Ġanswers": 5481,
      "Ġsurvival": 5482,
      "Ġincreasingly": 5483,
      "Ġlaboratory": 5484,
      "ĠRussian": 5485,
      "Ġobtained": 5486,
      "Ġdangerous": 5487,
      "burg": 5488,
      "example": 5489,
      "ĠCatholic": 5490,
      "49": 5491,
      "IP": 5492,
      "No": 5493,
      "ael": 5494,
      "va": 5495,
      "vis": 5496,
      "Ġtiny": 5497,
      "inos": 5498,
      "inant": 5499,
      "Ġbill": 5500,
      "Ġlas": 5501,
      "stream": 5502,
      "olve": 5503,
      "Ġgrown": 5504,
      "celer": 5505,
      "ĠAS": 5506,
      "ĠPower": 5507,
      "ĠGulf": 5508,
      "active": 5509,
      "ework": 5510,
      "agues": 5511,
      "Ġcluster": 5512,
      "Ġagency": 5513,
      "Ġ36": 5514,
      "ĠYet": 5515,
      "Ġregist": 5516,
      "Ġgraph": 5517,
      "ĠReview": 5518,
      "Ġexplan": 5519,
      "Ġmainly": 5520,
      "Ġtrials": 5521,
      "Ġsensitive": 5522,
      "Ġurban": 5523,
      "ĠFrank": 5524,
      "Ġsurrounding": 5525,
      "ĠMaryland": 5526,
      "Ġexactly": 5527,
      "Ġlandscape": 5528,
      "Ġpieces": 5529,
      "aith": 5530,
      "point": 5531,
      "zil": 5532,
      "inent": 5533,
      "Ġfo": 5534,
      "Ġreject": 5535,
      "ĠMart": 5536,
      "ĠMag": 5537,
      "ĠBet": 5538,
      "osal": 5539,
      "ogle": 5540,
      "Ġshared": 5541,
      "Ġdisapp": 5542,
      "ĠThomas": 5543,
      "Ġcommit": 5544,
      "Ġattacks": 5545,
      "Ġdistingu": 5546,
      "Ġdepending": 5547,
      "Ġpossess": 5548,
      "Ġbrown": 5549,
      "Ġbiology": 5550,
      "Ġresponsibility": 5551,
      "ĠMinistry": 5552,
      "Ġaccepted": 5553,
      "Ġinjury": 5554,
      "Ġwatershed": 5555,
      "board": 5556,
      "Ġventric": 5557,
      "Ġlatest": 5558,
      "ĠLatin": 5559,
      "47": 5560,
      "BN": 5561,
      "PD": 5562,
      "aj": 5563,
      "press": 5564,
      "such": 5565,
      "onic": 5566,
      "atch": 5567,
      "anz": 5568,
      "Ġinhib": 5569,
      "Ġhomes": 5570,
      "urance": 5571,
      "irty": 5572,
      "Ġitems": 5573,
      "ĠRem": 5574,
      "ĠFood": 5575,
      "place": 5576,
      "Ġapparent": 5577,
      "Ġtexts": 5578,
      "ĠSte": 5579,
      "ribed": 5580,
      "Ġexpensive": 5581,
      "Ġinvolves": 5582,
      "Ġpaint": 5583,
      "Ġtoxicity": 5584,
      "Ġtransmission": 5585,
      "ioxide": 5586,
      "Ġcandid": 5587,
      "Ġunderstood": 5588,
      "Ġvessel": 5589,
      "HO": 5590,
      "ses": 5591,
      "itage": 5592,
      "Ġpou": 5593,
      "ano": 5594,
      "Ġmira": 5595,
      "Ġded": 5596,
      "Ġhun": 5597,
      "Ġgold": 5598,
      "ĠSum": 5599,
      "ĠRoyal": 5600,
      "Ġplatform": 5601,
      "Ġcontrolled": 5602,
      "Ġtwenty": 5603,
      "ĠHebre": 5604,
      "Ġdefects": 5605,
      "Ġexplained": 5606,
      "Ġdirected": 5607,
      "Ġbreeding": 5608,
      "ĠGuide": 5609,
      "ĠSecond": 5610,
      "Ġthousand": 5611,
      "Ġhonor": 5612,
      "ĠAlexander": 5613,
      "Ġstruggle": 5614,
      "Ġdrinking": 5615,
      "ĠIraq": 5616,
      "ĠHebrew": 5617,
      "My": 5618,
      "cers": 5619,
      "coh": 5620,
      "dra": 5621,
      "name": 5622,
      "with": 5623,
      "ya": 5624,
      "inet": 5625,
      "iced": 5626,
      "ĠAriz": 5627,
      "ĠPort": 5628,
      "ods": 5629,
      "Ġseed": 5630,
      "ureau": 5631,
      "Ġautism": 5632,
      "ĠAnother": 5633,
      "Ġowners": 5634,
      "Ġestimate": 5635,
      "Ġtreatments": 5636,
      "Ġmetal": 5637,
      "Ġinteraction": 5638,
      "ĠBlack": 5639,
      "ĠSmith": 5640,
      "ĠCastleton": 5641,
      "Ġvehicle": 5642,
      "Ġmanufacture": 5643,
      "Ġpregnancy": 5644,
      "Ġagricultural": 5645,
      "commun": 5646,
      "Ġcircumst": 5647,
      "ĠAcademy": 5648,
      "cyclopedia": 5649,
      "DT": 5650,
      "Ind": 5651,
      "Note": 5652,
      "Our": 5653,
      "US": 5654,
      "inating": 5655,
      "Ġsides": 5656,
      "anks": 5657,
      "icide": 5658,
      "Ġdrought": 5659,
      "Ġthin": 5660,
      "irds": 5661,
      "abase": 5662,
      "osm": 5663,
      "ested": 5664,
      "Ġrural": 5665,
      "alls": 5666,
      "ĠOld": 5667,
      "ĠOnce": 5668,
      "Ġarsenic": 5669,
      "Ġunion": 5670,
      "Ġrepresents": 5671,
      "Ġaccompl": 5672,
      "Ġproducing": 5673,
      "Ġ400": 5674,
      "Ġmedium": 5675,
      "Ġlocations": 5676,
      "Ġinstruction": 5677,
      "ĠNews": 5678,
      "Ġelectron": 5679,
      "Ġlisten": 5680,
      "Ġmotion": 5681,
      "Ġastron": 5682,
      "Ġdouble": 5683,
      "Ġmountain": 5684,
      "Ġslowly": 5685,
      "Ġhorse": 5686,
      "Ġdogs": 5687,
      "ĠParis": 5688,
      "Ġsustainable": 5689,
      "Ġquarter": 5690,
      "Ġillegal": 5691,
      "Ġexcellent": 5692,
      "58": 5693,
      "GO": 5694,
      "Here": 5695,
      "Last": 5696,
      "tion": 5697,
      "rete": 5698,
      "Ġsin": 5699,
      "Ġcadmium": 5700,
      "Ġborder": 5701,
      "Ġfasc": 5702,
      "Ġfalse": 5703,
      "state": 5704,
      "Ġgall": 5705,
      "ĠCzech": 5706,
      "ĠDisc": 5707,
      "ĠFree": 5708,
      "ĠNav": 5709,
      "Ġrough": 5710,
      "ĠJose": 5711,
      "ĠOcean": 5712,
      "anged": 5713,
      "Ġclasses": 5714,
      "Ġparalle": 5715,
      "ĠQue": 5716,
      "ipping": 5717,
      "Another": 5718,
      "Ġsubjects": 5719,
      "Ġimmig": 5720,
      "Ġclosely": 5721,
      "ĠStudies": 5722,
      "ĠManagement": 5723,
      "Ġstraight": 5724,
      "ĠGlobal": 5725,
      "ĠIslamic": 5726,
      "ĠTwo": 5727,
      "Ġhazard": 5728,
      "eal": 5729,
      "gments": 5730,
      "och": 5731,
      "pret": 5732,
      "ture": 5733,
      "Ã§": 5734,
      "Ġbank": 5735,
      "Ġfelt": 5736,
      "inger": 5737,
      "Ġmamm": 5738,
      "rot": 5739,
      "ctive": 5740,
      "ĠMu": 5741,
      "atever": 5742,
      "ĠNature": 5743,
      "Ġshar": 5744,
      "iah": 5745,
      "Ġcontamin": 5746,
      "ago": 5747,
      "Ġyourself": 5748,
      "Ġindex": 5749,
      "Ġremaining": 5750,
      "Ġrefers": 5751,
      "Ġtempor": 5752,
      "Ġadvanced": 5753,
      "ĠTherefore": 5754,
      "Ġaffects": 5755,
      "Ġappearance": 5756,
      "Ġhappened": 5757,
      "Ġcollected": 5758,
      "Ġlibrary": 5759,
      "Ġdemonstrated": 5760,
      "Ġnutri": 5761,
      "ĠMudejar": 5762,
      "Ġinstructions": 5763,
      "Ġspiritual": 5764,
      "html": 5765,
      "41": 5766,
      "98": 5767,
      "field": 5768,
      "names": 5769,
      "Ġtape": 5770,
      "Ġcert": 5771,
      "esis": 5772,
      "Ġfirm": 5773,
      "Ġtoler": 5774,
      "asters": 5775,
      "ĠCub": 5776,
      "amil": 5777,
      "ĠHall": 5778,
      "employ": 5779,
      "anta": 5780,
      "orted": 5781,
      "Ġimper": 5782,
      "Ġrecovery": 5783,
      "luding": 5784,
      "ifications": 5785,
      "ooking": 5786,
      "Ġassistance": 5787,
      "Ġperspective": 5788,
      "Ġoccasion": 5789,
      "ĠArctic": 5790,
      "Ġshel": 5791,
      "Ġ1997": 5792,
      "Ġlooked": 5793,
      "Ġslaves": 5794,
      "ĠCommon": 5795,
      "Ġjudge": 5796,
      "Ġconcentrations": 5797,
      "Ġirrigation": 5798,
      "Ġmechanism": 5799,
      "Ġagreement": 5800,
      "Ġdecrease": 5801,
      "Ġneighbor": 5802,
      "Ġphilosophy": 5803,
      "Ġmentioned": 5804,
      "76": 5805,
      "Ad": 5806,
      "CS": 5807,
      "Con": 5808,
      "DE": 5809,
      "Sh": 5810,
      "ki": 5811,
      "ny": 5812,
      "Ġiron": 5813,
      "itch": 5814,
      "Ġpra": 5815,
      "Ġpick": 5816,
      "Ġfly": 5817,
      "icy": 5818,
      "icines": 5819,
      "cel": 5820,
      "ĠCle": 5821,
      "ĠImp": 5822,
      "eline": 5823,
      "oples": 5824,
      "ĠNations": 5825,
      "Ġclosed": 5826,
      "ĠThose": 5827,
      "Ġrow": 5828,
      "Ġconscious": 5829,
      "icted": 5830,
      "vironments": 5831,
      "Ġdepends": 5832,
      "Ġexplains": 5833,
      "Ġgoods": 5834,
      "Ġadvance": 5835,
      "Ġequival": 5836,
      "ĠResources": 5837,
      "Ġrestrict": 5838,
      "Ġerr": 5839,
      "Ġnecessarily": 5840,
      "ipped": 5841,
      "Ġsurvive": 5842,
      "Ġdiagnosis": 5843,
      "Ġefficiency": 5844,
      "Ġrepeated": 5845,
      "iblical": 5846,
      "igenous": 5847,
      "Ġfigures": 5848,
      "BI": 5849,
      "kin": 5850,
      "matic": 5851,
      "ras": 5852,
      "vision": 5853,
      "wo": 5854,
      "Ġaqu": 5855,
      "Ġol": 5856,
      "Ġoption": 5857,
      "orical": 5858,
      "alian": 5859,
      "Ġbind": 5860,
      "Ġbatter": 5861,
      "Ġtooth": 5862,
      "Ġdie": 5863,
      "Ġhour": 5864,
      "Ġnone": 5865,
      "ĠAM": 5866,
      "ĠMiss": 5867,
      "ĠPac": 5868,
      "ĠBas": 5869,
      "ĠEvery": 5870,
      "ĠNative": 5871,
      "ĠLand": 5872,
      "Ġshot": 5873,
      "Ġwealth": 5874,
      "ibilities": 5875,
      "Ġmanif": 5876,
      "Ġapprec": 5877,
      "Ġamino": 5878,
      "Ġexpans": 5879,
      "Ġsubs": 5880,
      "idential": 5881,
      "Ġextract": 5882,
      "Ġtechnical": 5883,
      "Ġperiods": 5884,
      "ĠStudents": 5885,
      "Ġoriginally": 5886,
      "Ġpictures": 5887,
      "Ġsatell": 5888,
      "Ġencourage": 5889,
      "Ġroute": 5890,
      "Ġfarmers": 5891,
      "ĠMudejars": 5892,
      "sembly": 5893,
      "ĠWildlife": 5894,
      "ĠWindows": 5895,
      "ĠFrancisco": 5896,
      "lu": 5897,
      "mail": 5898,
      "uing": 5899,
      "Ġ+": 5900,
      "inction": 5901,
      "Ġsul": 5902,
      "Ġbright": 5903,
      "Ġfol": 5904,
      "Ġfisher": 5905,
      "lements": 5906,
      "Ġnodes": 5907,
      "etry": 5908,
      "ĠPri": 5909,
      "ĠDise": 5910,
      "ĠEnd": 5911,
      "ĠExt": 5912,
      "ĠOx": 5913,
      "ateral": 5914,
      "Ġtrafficking": 5915,
      "Ġroof": 5916,
      "Ġregional": 5917,
      "Ġacceler": 5918,
      "ieties": 5919,
      "Ġdefe": 5920,
      "Ġextended": 5921,
      "Ġfollows": 5922,
      "Ġsolutions": 5923,
      "ĠSpanish": 5924,
      "Ġgenerate": 5925,
      "ĠCancer": 5926,
      "Ġelev": 5927,
      "Ġdriving": 5928,
      "Ġprinciple": 5929,
      "Ġengineering": 5930,
      "riptions": 5931,
      "Ġdebate": 5932,
      "rastructure": 5933,
      "Ġcouple": 5934,
      "Ġrarely": 5935,
      "aturally": 5936,
      "Ġpretty": 5937,
      "Ġgirls": 5938,
      "Ġopinion": 5939,
      "Ġmosqu": 5940,
      "Ġhusband": 5941,
      "01": 5942,
      "05": 5943,
      "mond": 5944,
      "ooth": 5945,
      "Ġaf": 5946,
      "alam": 5947,
      "Ġdioxide": 5948,
      "Ġgone": 5949,
      "imens": 5950,
      "Ġanth": 5951,
      "ĠBook": 5952,
      "ĠWol": 5953,
      "ĠWomen": 5954,
      "ĠNor": 5955,
      "Ġabund": 5956,
      "ĠJac": 5957,
      "ĠJava": 5958,
      "ruption": 5959,
      "Ġunlike": 5960,
      "Ġinferior": 5961,
      "oved": 5962,
      "Ġacids": 5963,
      "Ġdecline": 5964,
      "athy": 5965,
      "Ġwhereas": 5966,
      "Ġsignal": 5967,
      "Ġexamine": 5968,
      "Ġsimpl": 5969,
      "Ġpercentage": 5970,
      "Ġmetab": 5971,
      "Ġsky": 5972,
      "Ġbroken": 5973,
      "Ġposterior": 5974,
      "Ġinjuries": 5975,
      "Ġkingdom": 5976,
      "ĠPrince": 5977,
      "Ġecosystem": 5978,
      "ĠGoogle": 5979,
      "Ġpesticides": 5980,
      "American": 5981,
      "Ġsurfaces": 5982,
      "ĠArizona": 5983,
      "De": 5984,
      "ION": 5985,
      "care": 5986,
      "po": 5987,
      "ss": 5988,
      "Ġax": 5989,
      "Ġfill": 5990,
      "ĠTer": 5991,
      "Ġgun": 5992,
      "ĠIll": 5993,
      "adel": 5994,
      "ĠMS": 5995,
      "ĠPen": 5996,
      "ĠHel": 5997,
      "estalt": 5998,
      "ocra": 5999,
      "ĠGroup": 6000,
      "Ġunknown": 6001,
      "Ġcommitted": 6002,
      "ĠStep": 6003,
      "ĠVictor": 6004,
      "Ġtwice": 6005,
      "Ġblog": 6006,
      "Ġpoison": 6007,
      "Ġattached": 6008,
      "exp": 6009,
      "Ġdepth": 6010,
      "Ġdepression": 6011,
      "Ġready": 6012,
      "comes": 6013,
      "Ġphysics": 6014,
      "Ġcertainly": 6015,
      "Ġlisted": 6016,
      "Ġcomputers": 6017,
      "Ġemployed": 6018,
      "Ġentirely": 6019,
      "Ġstrike": 6020,
      "Ġinterpre": 6021,
      "Ġdiagnosed": 6022,
      "Ġawareness": 6023,
      "ĠBrazil": 6024,
      "ĠRevolution": 6025,
      "Ġphysician": 6026,
      "ĠProfessor": 6027,
      "Ġgyrus": 6028,
      "cohol": 6029,
      "85": 6030,
      "Rec": 6031,
      "fe": 6032,
      "hand": 6033,
      "produ": 6034,
      "anes": 6035,
      "Ġmice": 6036,
      "ston": 6037,
      "ĠSouthern": 6038,
      "achers": 6039,
      "Ġwasn": 6040,
      "Ġchlor": 6041,
      "ĠLab": 6042,
      "Ġenvironments": 6043,
      "endants": 6044,
      "Ġjury": 6045,
      "ĠKar": 6046,
      "Ġprepar": 6047,
      "Ġphase": 6048,
      "oviet": 6049,
      "Ġexperiments": 6050,
      "ĠAnn": 6051,
      "Ġelected": 6052,
      "Ġgreatest": 6053,
      "Ġrising": 6054,
      "Ġtopic": 6055,
      "Ġera": 6056,
      "Ġfocused": 6057,
      "Ġfishing": 6058,
      "Ġrecognize": 6059,
      "Ġfluid": 6060,
      "Ġreplaced": 6061,
      "Ġintegrated": 6062,
      "Ġmagnetic": 6063,
      "Ġargument": 6064,
      "Ġvaccine": 6065,
      "Ġtroops": 6066,
      "'m": 6067,
      "En": 6068,
      "bial": 6069,
      "rint": 6070,
      "yright": 6071,
      "Ġtail": 6072,
      "ita": 6073,
      "Ġbud": 6074,
      "Ġfit": 6075,
      "Ġfle": 6076,
      "Ġdut": 6077,
      "roph": 6078,
      "Ġlose": 6079,
      "Ġnaturally": 6080,
      "olute": 6081,
      "etime": 6082,
      "Ġstands": 6083,
      "iest": 6084,
      "erent": 6085,
      "ĠHy": 6086,
      "Ġsuc": 6087,
      "Ġneu": 6088,
      "ĠLet": 6089,
      "peror": 6090,
      "asts": 6091,
      "ĠâĢ¦": 6092,
      "Ġdisk": 6093,
      "Ġperception": 6094,
      "Ġmanage": 6095,
      "avier": 6096,
      "Ġadding": 6097,
      "ventions": 6098,
      "Ġexplo": 6099,
      "Ġmatters": 6100,
      "Ġinvolving": 6101,
      "Ġspeaking": 6102,
      "Ġconsiderable": 6103,
      "Ġasthma": 6104,
      "Ġsumm": 6105,
      "Ġholding": 6106,
      "Ġtowns": 6107,
      "Ġdetailed": 6108,
      "Ġachieved": 6109,
      "Ġcrime": 6110,
      "Ġconcentration": 6111,
      "Ġregularly": 6112,
      "heimer": 6113,
      "namese": 6114,
      "called": 6115,
      "flow": 6116,
      "know": 6117,
      "pen": 6118,
      "rative": 6119,
      "rants": 6120,
      "za": 6121,
      "Ã¼": 6122,
      "ato": 6123,
      "organ": 6124,
      "Ġinject": 6125,
      "Ġmour": 6126,
      "Ġstock": 6127,
      "Ġpros": 6128,
      "Ġorb": 6129,
      "abled": 6130,
      "Ġselection": 6131,
      "Ġrub": 6132,
      "Ġabuse": 6133,
      "Ġplastic": 6134,
      "Ġunus": 6135,
      "Ġoutl": 6136,
      "Ġregulations": 6137,
      "Ġremote": 6138,
      "Ġhelpful": 6139,
      "Ġmedications": 6140,
      "theless": 6141,
      "Ġ1994": 6142,
      "Ġleads": 6143,
      "Ġnearby": 6144,
      "ĠChristians": 6145,
      "Ġsecondary": 6146,
      "Ġkeeping": 6147,
      "Ġassociation": 6148,
      "Ġhistoric": 6149,
      "Ġregarded": 6150,
      "Ġmassive": 6151,
      "Ġtaxes": 6152,
      "ING": 6153,
      "ictionary": 6154,
      "Ġwalking": 6155,
      "ĠLibrary": 6156,
      "Ġofficers": 6157,
      "Ġconstructed": 6158,
      "Ġtouch": 6159,
      "Ġdestroyed": 6160,
      ".|": 6161,
      "PV": 6162,
      "Ġtheories": 6163,
      "Ġcognitive": 6164,
      "Ġfold": 6165,
      "Ġholes": 6166,
      "Ġgames": 6167,
      "ĠAp": 6168,
      "ĠAz": 6169,
      "odox": 6170,
      "thrit": 6171,
      "ĠHospital": 6172,
      "andon": 6173,
      "ĠEconom": 6174,
      "ĠGene": 6175,
      "Ġspend": 6176,
      "acters": 6177,
      "ĠUt": 6178,
      "Ġdisabilities": 6179,
      "Ġoutcome": 6180,
      "ĠVer": 6181,
      "teen": 6182,
      "Ġblocks": 6183,
      "Ġsurve": 6184,
      "Ġdecade": 6185,
      "Ġinvention": 6186,
      "Ġpolar": 6187,
      "Ġcrew": 6188,
      "ĠIndians": 6189,
      "Ġprotected": 6190,
      "Ġgenerated": 6191,
      "ropical": 6192,
      "Ġfewer": 6193,
      "ĠAdminist": 6194,
      "Ġ130": 6195,
      "Ġseparated": 6196,
      "Ġsituations": 6197,
      "Ġindependence": 6198,
      "Ġjoined": 6199,
      "ĠISBN": 6200,
      "Ġvitamin": 6201,
      "Ġenhance": 6202,
      "Ġcontemporary": 6203,
      "Ġvulner": 6204,
      "69": 6205,
      "?\"": 6206,
      "CO": 6207,
      "RI": 6208,
      "from": 6209,
      "zed": 6210,
      "Ġsought": 6211,
      "itivity": 6212,
      "Ġpor": 6213,
      "Ġbones": 6214,
      "Ġinact": 6215,
      "Ġmail": 6216,
      "Ġdiversity": 6217,
      "step": 6218,
      "othe": 6219,
      "ĠST": 6220,
      "ĠSand": 6221,
      "irt": 6222,
      "irie": 6223,
      "Ġ(\"": 6224,
      "ĠPeter": 6225,
      "ĠHim": 6226,
      "ĠData": 6227,
      "ĠEc": 6228,
      "Ġchosen": 6229,
      "ogl": 6230,
      "Ġkil": 6231,
      "Ġagencies": 6232,
      "Ġremark": 6233,
      "arsh": 6234,
      "Ġgravity": 6235,
      "eek": 6236,
      "Ġcourts": 6237,
      "Ġcarefully": 6238,
      "Ġoperate": 6239,
      "Ġdescribes": 6240,
      "Ġwindow": 6241,
      "Ġfluor": 6242,
      "ĠVietnamese": 6243,
      "Ġapart": 6244,
      "ĠValley": 6245,
      "Ġrevealed": 6246,
      "Ġlaunched": 6247,
      "Ġethnic": 6248,
      "Ġconsequences": 6249,
      "ĠAtlantic": 6250,
      "uilding": 6251,
      "ĠColumbia": 6252,
      "bachia": 6253,
      "65": 6254,
      "Re": 6255,
      "body": 6256,
      "ivery": 6257,
      "kes": 6258,
      "Ġwid": 6259,
      "Ġbow": 6260,
      "Ġmit": 6261,
      "raph": 6262,
      "ĠMark": 6263,
      "ĠRab": 6264,
      "ĠNE": 6265,
      "Ġneither": 6266,
      "Ġenem": 6267,
      "Ġresolution": 6268,
      "Ġcommittee": 6269,
      "ĠStreet": 6270,
      "riculum": 6271,
      "Ġpeoples": 6272,
      "Ġagents": 6273,
      "Ġagreed": 6274,
      "Ġamb": 6275,
      "Ġindeed": 6276,
      "Ġcommunications": 6277,
      "Ġmarked": 6278,
      "Ġseemed": 6279,
      "while": 6280,
      "Ġclaimed": 6281,
      "ĠControl": 6282,
      "Ġafford": 6283,
      "Ġvillages": 6284,
      "Ġdeclared": 6285,
      "Ġcarrying": 6286,
      "Ġmobile": 6287,
      "Ġinstrument": 6288,
      "ĠInstead": 6289,
      "Ġcolleagues": 6290,
      "Ġcircumstances": 6291,
      "adelph": 6292,
      ".;": 6293,
      "59": 6294,
      "UR": 6295,
      "].": 6296,
      "gor": 6297,
      "Ġ>": 6298,
      "rep": 6299,
      "isters": 6300,
      "Ġpark": 6301,
      "Ġmort": 6302,
      "ĠTimes": 6303,
      "ĠTHE": 6304,
      "vert": 6305,
      "Ġconqu": 6306,
      "ĠMicro": 6307,
      "ĠMET": 6308,
      "thodox": 6309,
      "ĠBul": 6310,
      "Ġexists": 6311,
      "ĠWell": 6312,
      "Ġabandon": 6313,
      "Ġadequ": 6314,
      "Ġcomposed": 6315,
      "Ġmanaged": 6316,
      "Ġinfrastructure": 6317,
      "Ġrecip": 6318,
      "Ġthereby": 6319,
      "oking": 6320,
      "ucose": 6321,
      "Ġcharacters": 6322,
      "iodiversity": 6323,
      "Ġguidelines": 6324,
      "Ġstructural": 6325,
      "Ġfacilit": 6326,
      "ĠOnly": 6327,
      "Ġzero": 6328,
      "Stud": 6329,
      "Ġstrongly": 6330,
      "Ġoptical": 6331,
      "IDS": 6332,
      "Ġpurposes": 6333,
      "Ġcompetition": 6334,
      "Ġderived": 6335,
      "Ġhemisp": 6336,
      "usalem": 6337,
      "43": 6338,
      "500": 6339,
      "Do": 6340,
      "LL": 6341,
      "eper": 6342,
      "effect": 6343,
      "then": 6344,
      "zheimer": 6345,
      "Ġtal": 6346,
      "inux": 6347,
      "Ġcoc": 6348,
      "Ġfissure": 6349,
      "Ġmuseum": 6350,
      "sex": 6351,
      "idal": 6352,
      "utive": 6353,
      "ĠAgency": 6354,
      "igan": 6355,
      "Ġstret": 6356,
      "uses": 6357,
      "ĠEPA": 6358,
      "ĠFre": 6359,
      "ĠNGO": 6360,
      "unch": 6361,
      "unicip": 6362,
      "Ġrid": 6363,
      "Ġenable": 6364,
      "Ġenforce": 6365,
      "ansas": 6366,
      "Ġplate": 6367,
      "agn": 6368,
      "ĠStar": 6369,
      "erted": 6370,
      "everal": 6371,
      "Ġhumidity": 6372,
      "Ġflag": 6373,
      "Ġtransform": 6374,
      "Ġartists": 6375,
      "Ġdepos": 6376,
      "Ġservers": 6377,
      "Ġequally": 6378,
      "...]": 6379,
      "Ġengaged": 6380,
      "anguage": 6381,
      "ĠClass": 6382,
      "Ġdeliver": 6383,
      "ĠEarly": 6384,
      "Ġrepresented": 6385,
      "Ġrepresentation": 6386,
      "ĠXavier": 6387,
      "Ġ1970": 6388,
      "Ġintroduction": 6389,
      "ĠInterpret": 6390,
      "ĠPhiladelph": 6391,
      "ĠUsing": 6392,
      "Ġbeautiful": 6393,
      "Ġnucleus": 6394,
      "Ġdatabase": 6395,
      "Ġframework": 6396,
      "Ġcriminal": 6397,
      "Ġparallel": 6398,
      "ĠPacific": 6399
    },
    "merges": [
      [
        "Ġ",
        "t"
      ],
      [
        "Ġ",
        "a"
      ],
      [
        "h",
        "e"
      ],
      [
        "i",
        "n"
      ],
      [
        "r",
        "e"
      ],
      [
        "Ġt",
        "he"
      ],
      [
        "Ġ",
        "o"
      ],
      [
        "e",
        "r"
      ],
      [
        "o",
        "n"
      ],
      [
        "a",
        "t"
      ],
      [
        "Ġ",
        "s"
      ],
      [
        "e",
        "n"
      ],
      [
        "Ġ",
        "c"
      ],
      [
        "e",
        "s"
      ],
      [
        "Ġ",
        "w"
      ],
      [
        "i",
        "s"
      ],
      [
        "n",
        "d"
      ],
      [
        "o",
        "r"
      ],
      [
        "i",
        "t"
      ],
      [
        "Ġ",
        "p"
      ],
      [
        "e",
        "d"
      ],
      [
        "Ġo",
        "f"
      ],
      [
        "a",
        "l"
      ],
      [
        "Ġ",
        "b"
      ],
      [
        "Ġ",
        "f"
      ],
      [
        "a",
        "n"
      ],
      [
        "Ġ",
        "in"
      ],
      [
        "in",
        "g"
      ],
      [
        "a",
        "r"
      ],
      [
        "Ġ",
        "m"
      ],
      [
        "o",
        "u"
      ],
      [
        "Ġa",
        "nd"
      ],
      [
        "i",
        "c"
      ],
      [
        "Ġt",
        "o"
      ],
      [
        "i",
        "on"
      ],
      [
        "Ġ",
        "d"
      ],
      [
        "l",
        "e"
      ],
      [
        "r",
        "o"
      ],
      [
        "a",
        "s"
      ],
      [
        "Ġ",
        "h"
      ],
      [
        "en",
        "t"
      ],
      [
        "Ġt",
        "h"
      ],
      [
        "c",
        "t"
      ],
      [
        "Ġ",
        "e"
      ],
      [
        "i",
        "l"
      ],
      [
        "Ġ",
        "re"
      ],
      [
        "v",
        "e"
      ],
      [
        "o",
        "m"
      ],
      [
        "Ġ",
        "l"
      ],
      [
        "s",
        "t"
      ],
      [
        "Ġ",
        "n"
      ],
      [
        "l",
        "y"
      ],
      [
        "Ġb",
        "e"
      ],
      [
        "at",
        "ion"
      ],
      [
        "Ġ",
        "is"
      ],
      [
        "Ġ",
        "T"
      ],
      [
        "s",
        "e"
      ],
      [
        "o",
        "l"
      ],
      [
        "Ġ",
        "g"
      ],
      [
        "i",
        "d"
      ],
      [
        "i",
        "m"
      ],
      [
        "c",
        "e"
      ],
      [
        "e",
        "t"
      ],
      [
        "u",
        "t"
      ],
      [
        "r",
        "a"
      ],
      [
        "Ġ",
        "A"
      ],
      [
        "o",
        "t"
      ],
      [
        "u",
        "r"
      ],
      [
        "c",
        "h"
      ],
      [
        "Ġf",
        "or"
      ],
      [
        "o",
        "w"
      ],
      [
        "Ġ",
        "S"
      ],
      [
        "Ġ",
        "C"
      ],
      [
        "i",
        "g"
      ],
      [
        "Ġth",
        "at"
      ],
      [
        "Ġo",
        "n"
      ],
      [
        "Ġ",
        "u"
      ],
      [
        "v",
        "er"
      ],
      [
        "â",
        "Ģ"
      ],
      [
        "Ġ",
        "I"
      ],
      [
        "Ġs",
        "t"
      ],
      [
        "i",
        "r"
      ],
      [
        "a",
        "m"
      ],
      [
        "u",
        "l"
      ],
      [
        "a",
        "y"
      ],
      [
        "Ġa",
        "s"
      ],
      [
        "e",
        "l"
      ],
      [
        "Ġp",
        "ro"
      ],
      [
        "he",
        "r"
      ],
      [
        "it",
        "h"
      ],
      [
        "Ġc",
        "on"
      ],
      [
        "a",
        "d"
      ],
      [
        "Ġa",
        "n"
      ],
      [
        "Ġ",
        "M"
      ],
      [
        "t",
        "er"
      ],
      [
        "Ġw",
        "h"
      ],
      [
        "Ġw",
        "ith"
      ],
      [
        "Ġa",
        "re"
      ],
      [
        "Ġ",
        "y"
      ],
      [
        "Ġ",
        "1"
      ],
      [
        "Ġ",
        "("
      ],
      [
        "Ġo",
        "r"
      ],
      [
        "i",
        "f"
      ],
      [
        "Ġ",
        "it"
      ],
      [
        "Ġa",
        "l"
      ],
      [
        "ĠT",
        "he"
      ],
      [
        "Ġ",
        "P"
      ],
      [
        "m",
        "ent"
      ],
      [
        "is",
        "t"
      ],
      [
        "er",
        "s"
      ],
      [
        "o",
        "d"
      ],
      [
        "t",
        "h"
      ],
      [
        "o",
        "p"
      ],
      [
        "g",
        "e"
      ],
      [
        "i",
        "es"
      ],
      [
        "Ġd",
        "e"
      ],
      [
        "at",
        "e"
      ],
      [
        "e",
        "ct"
      ],
      [
        "u",
        "s"
      ],
      [
        "Ġ",
        "B"
      ],
      [
        "e",
        "re"
      ],
      [
        "it",
        "y"
      ],
      [
        "Ġ",
        "H"
      ],
      [
        "Ġe",
        "x"
      ],
      [
        "u",
        "m"
      ],
      [
        "re",
        "s"
      ],
      [
        "a",
        "b"
      ],
      [
        "o",
        "s"
      ],
      [
        "il",
        "l"
      ],
      [
        "es",
        "t"
      ],
      [
        "Ġb",
        "y"
      ],
      [
        "Ġc",
        "om"
      ],
      [
        "o",
        "re"
      ],
      [
        "es",
        "s"
      ],
      [
        "r",
        "i"
      ],
      [
        "l",
        "d"
      ],
      [
        "Ġ",
        "he"
      ],
      [
        "ro",
        "m"
      ],
      [
        "Ġs",
        "u"
      ],
      [
        "e",
        "m"
      ],
      [
        "a",
        "nd"
      ],
      [
        "n",
        "t"
      ],
      [
        "Ġa",
        "t"
      ],
      [
        "ou",
        "r"
      ],
      [
        "i",
        "ve"
      ],
      [
        "a",
        "c"
      ],
      [
        "Ġw",
        "as"
      ],
      [
        "a",
        "in"
      ],
      [
        "an",
        "t"
      ],
      [
        "q",
        "u"
      ],
      [
        "p",
        "p"
      ],
      [
        "Ġ",
        "v"
      ],
      [
        "Ġ",
        "D"
      ],
      [
        "u",
        "d"
      ],
      [
        "Ġ",
        "E"
      ],
      [
        "Ġh",
        "a"
      ],
      [
        "Ġf",
        "rom"
      ],
      [
        "i",
        "v"
      ],
      [
        "Ġ",
        "W"
      ],
      [
        "ig",
        "h"
      ],
      [
        "o",
        "c"
      ],
      [
        "Ġ",
        "R"
      ],
      [
        "k",
        "e"
      ],
      [
        "Ġs",
        "e"
      ],
      [
        "Ġ",
        "F"
      ],
      [
        "Ġ",
        "N"
      ],
      [
        "Ġn",
        "e"
      ],
      [
        "or",
        "t"
      ],
      [
        "u",
        "re"
      ],
      [
        "Ġ",
        "2"
      ],
      [
        "Ġc",
        "h"
      ],
      [
        "u",
        "n"
      ],
      [
        "Ġn",
        "ot"
      ],
      [
        "Ġ",
        "r"
      ],
      [
        "Ġ",
        "G"
      ],
      [
        "i",
        "al"
      ],
      [
        "ic",
        "al"
      ],
      [
        "Ġ",
        "L"
      ],
      [
        "ar",
        "t"
      ],
      [
        "Ġ",
        "le"
      ],
      [
        "0",
        "0"
      ],
      [
        "Ġc",
        "an"
      ],
      [
        "Ġha",
        "ve"
      ],
      [
        "o",
        "g"
      ],
      [
        "Ġs",
        "p"
      ],
      [
        "Ġ",
        "en"
      ],
      [
        "Ġs",
        "h"
      ],
      [
        "ic",
        "h"
      ],
      [
        "p",
        "t"
      ],
      [
        "g",
        "h"
      ],
      [
        "al",
        "l"
      ],
      [
        "ou",
        "ld"
      ],
      [
        "r",
        "ou"
      ],
      [
        "igh",
        "t"
      ],
      [
        "Ġth",
        "is"
      ],
      [
        "T",
        "he"
      ],
      [
        "âĢ",
        "Ļ"
      ],
      [
        "'",
        "s"
      ],
      [
        "Ġw",
        "or"
      ],
      [
        "t",
        "her"
      ],
      [
        "Ġa",
        "b"
      ],
      [
        "ion",
        "s"
      ],
      [
        "Ġ",
        "J"
      ],
      [
        "Ġy",
        "ou"
      ],
      [
        "at",
        "ed"
      ],
      [
        "o",
        "st"
      ],
      [
        "d",
        "u"
      ],
      [
        "om",
        "e"
      ],
      [
        "ar",
        "d"
      ],
      [
        "el",
        "l"
      ],
      [
        "e",
        "ar"
      ],
      [
        "f",
        "f"
      ],
      [
        "i",
        "a"
      ],
      [
        "p",
        "er"
      ],
      [
        "ou",
        "t"
      ],
      [
        "a",
        "ct"
      ],
      [
        "Ġwh",
        "ich"
      ],
      [
        "Ġ",
        "O"
      ],
      [
        "as",
        "t"
      ],
      [
        "Ġin",
        "t"
      ],
      [
        "Ġ",
        "U"
      ],
      [
        "Ġ",
        "im"
      ],
      [
        "an",
        "s"
      ],
      [
        "Ġp",
        "l"
      ],
      [
        "in",
        "e"
      ],
      [
        "Ġw",
        "e"
      ],
      [
        "Ġ",
        "âĢ"
      ],
      [
        "Ġu",
        "s"
      ],
      [
        "Ġthe",
        "ir"
      ],
      [
        "p",
        "l"
      ],
      [
        "r",
        "u"
      ],
      [
        "a",
        "ge"
      ],
      [
        "ĠI",
        "n"
      ],
      [
        "e",
        "w"
      ],
      [
        "i",
        "z"
      ],
      [
        "Ġcon",
        "t"
      ],
      [
        "ou",
        "s"
      ],
      [
        "e",
        "c"
      ],
      [
        "Ġ",
        "\""
      ],
      [
        "Ġd",
        "is"
      ],
      [
        "id",
        "e"
      ],
      [
        "a",
        "p"
      ],
      [
        "a",
        "re"
      ],
      [
        "c",
        "c"
      ],
      [
        "i",
        "b"
      ],
      [
        "a",
        "g"
      ],
      [
        "ation",
        "s"
      ],
      [
        "Ġ",
        "k"
      ],
      [
        "a",
        "k"
      ],
      [
        "ve",
        "l"
      ],
      [
        "Ġal",
        "l"
      ],
      [
        "Ġw",
        "he"
      ],
      [
        "u",
        "st"
      ],
      [
        "Ġw",
        "ere"
      ],
      [
        "on",
        "g"
      ],
      [
        "Ġa",
        "d"
      ],
      [
        "at",
        "er"
      ],
      [
        "ar",
        "y"
      ],
      [
        "Ġm",
        "ore"
      ],
      [
        "en",
        "d"
      ],
      [
        "Ġin",
        "c"
      ],
      [
        "Ġh",
        "as"
      ],
      [
        "or",
        "m"
      ],
      [
        "ul",
        "t"
      ],
      [
        "Ġthe",
        "y"
      ],
      [
        "i",
        "p"
      ],
      [
        "Ġp",
        "er"
      ],
      [
        "Ġ1",
        "9"
      ],
      [
        "Ġre",
        "s"
      ],
      [
        "Ġcom",
        "p"
      ],
      [
        "u",
        "al"
      ],
      [
        "Ġd",
        "o"
      ],
      [
        "Ġb",
        "ut"
      ],
      [
        "Ġo",
        "ther"
      ],
      [
        "i",
        "re"
      ],
      [
        "il",
        "d"
      ],
      [
        "s",
        "o"
      ],
      [
        "o",
        "od"
      ],
      [
        "en",
        "ce"
      ],
      [
        "Ġw",
        "ill"
      ],
      [
        "r",
        "y"
      ],
      [
        "Ġc",
        "l"
      ],
      [
        "k",
        "s"
      ],
      [
        "ig",
        "n"
      ],
      [
        "an",
        "ce"
      ],
      [
        "Ġm",
        "an"
      ],
      [
        "ĠT",
        "h"
      ],
      [
        "o",
        "se"
      ],
      [
        "res",
        "s"
      ],
      [
        "e",
        "p"
      ],
      [
        "ab",
        "le"
      ],
      [
        "Ġon",
        "e"
      ],
      [
        "Ġa",
        "r"
      ],
      [
        "a",
        "ch"
      ],
      [
        "Ġ",
        "j"
      ],
      [
        "Ġa",
        "pp"
      ],
      [
        "as",
        "s"
      ],
      [
        "ou",
        "nt"
      ],
      [
        "Ġh",
        "is"
      ],
      [
        "in",
        "d"
      ],
      [
        "as",
        "e"
      ],
      [
        "re",
        "at"
      ],
      [
        "or",
        "d"
      ],
      [
        "Ġm",
        "e"
      ],
      [
        "Ġp",
        "art"
      ],
      [
        "Ġe",
        "v"
      ],
      [
        "a",
        "ce"
      ],
      [
        "ct",
        "ion"
      ],
      [
        "Ġu",
        "n"
      ],
      [
        "âĢ",
        "Ŀ"
      ],
      [
        "Ġim",
        "p"
      ],
      [
        "Ġal",
        "so"
      ],
      [
        "a",
        "v"
      ],
      [
        "Ġin",
        "f"
      ],
      [
        "or",
        "y"
      ],
      [
        "a",
        "u"
      ],
      [
        "Ġwh",
        "o"
      ],
      [
        "Ġcom",
        "m"
      ],
      [
        "am",
        "e"
      ],
      [
        "ĠC",
        "h"
      ],
      [
        "ent",
        "s"
      ],
      [
        "b",
        "er"
      ],
      [
        "Ġt",
        "e"
      ],
      [
        "i",
        "an"
      ],
      [
        ")",
        "."
      ],
      [
        "Ġs",
        "o"
      ],
      [
        "Ġ",
        "K"
      ],
      [
        "Ġo",
        "ut"
      ],
      [
        "en",
        "s"
      ],
      [
        "ic",
        "e"
      ],
      [
        "ĠS",
        "t"
      ],
      [
        "is",
        "h"
      ],
      [
        "Ġab",
        "out"
      ],
      [
        "re",
        "e"
      ],
      [
        "ver",
        "y"
      ],
      [
        "Ġs",
        "c"
      ],
      [
        "ol",
        "og"
      ],
      [
        "Ġp",
        "re"
      ],
      [
        "it",
        "ion"
      ],
      [
        "u",
        "b"
      ],
      [
        "Ġy",
        "our"
      ],
      [
        "it",
        "e"
      ],
      [
        "a",
        "ke"
      ],
      [
        "c",
        "es"
      ],
      [
        "im",
        "e"
      ],
      [
        "Ġm",
        "ay"
      ],
      [
        "ac",
        "k"
      ],
      [
        "or",
        "s"
      ],
      [
        "Ġbe",
        "en"
      ],
      [
        "Ġit",
        "s"
      ],
      [
        "Ġre",
        "c"
      ],
      [
        "Ġs",
        "y"
      ],
      [
        "on",
        "e"
      ],
      [
        "ou",
        "nd"
      ],
      [
        "Ġth",
        "an"
      ],
      [
        "Ġs",
        "ome"
      ],
      [
        "Ġy",
        "ear"
      ],
      [
        "Ġu",
        "p"
      ],
      [
        "Ġthe",
        "m"
      ],
      [
        "Ġst",
        "ud"
      ],
      [
        "an",
        "g"
      ],
      [
        "at",
        "es"
      ],
      [
        "Ġthe",
        "re"
      ],
      [
        "r",
        "ic"
      ],
      [
        "Ġp",
        "e"
      ],
      [
        "u",
        "e"
      ],
      [
        "i",
        "le"
      ],
      [
        "o",
        "k"
      ],
      [
        "l",
        "ow"
      ],
      [
        "ĠâĢ",
        "ľ"
      ],
      [
        "Ġa",
        "g"
      ],
      [
        "Ġ",
        "qu"
      ],
      [
        "ow",
        "n"
      ],
      [
        "m",
        "er"
      ],
      [
        "a",
        "il"
      ],
      [
        "Ġbe",
        "c"
      ],
      [
        "Ġ",
        "V"
      ],
      [
        "i",
        "ke"
      ],
      [
        "ou",
        "gh"
      ],
      [
        "Ġh",
        "ad"
      ],
      [
        "o",
        "ver"
      ],
      [
        "rou",
        "gh"
      ],
      [
        "j",
        "ect"
      ],
      [
        "Ġint",
        "o"
      ],
      [
        "ĠI",
        "t"
      ],
      [
        "on",
        "s"
      ],
      [
        "Ġt",
        "ra"
      ],
      [
        "ter",
        "n"
      ],
      [
        "nd",
        "er"
      ],
      [
        "ing",
        "s"
      ],
      [
        "ay",
        "s"
      ],
      [
        "i",
        "e"
      ],
      [
        "p",
        "h"
      ],
      [
        "Ġd",
        "es"
      ],
      [
        "if",
        "f"
      ],
      [
        "Ġg",
        "en"
      ],
      [
        "r",
        "it"
      ],
      [
        "ver",
        "s"
      ],
      [
        "Ġ",
        "ro"
      ],
      [
        "l",
        "ic"
      ],
      [
        "t",
        "e"
      ],
      [
        "Ġwor",
        "k"
      ],
      [
        "o",
        "b"
      ],
      [
        "op",
        "le"
      ],
      [
        "m",
        "s"
      ],
      [
        "Ġ",
        "ra"
      ],
      [
        "re",
        "n"
      ],
      [
        "vel",
        "op"
      ],
      [
        "ation",
        "al"
      ],
      [
        "er",
        "v"
      ],
      [
        "he",
        "d"
      ],
      [
        "Ġt",
        "w"
      ],
      [
        "on",
        "d"
      ],
      [
        "Ġbe",
        "t"
      ],
      [
        "le",
        "ct"
      ],
      [
        "Ġthe",
        "se"
      ],
      [
        "it",
        "ies"
      ],
      [
        "Ġre",
        "p"
      ],
      [
        "t",
        "s"
      ],
      [
        "o",
        "ve"
      ],
      [
        "Ġ",
        "3"
      ],
      [
        "l",
        "ud"
      ],
      [
        "Ġcon",
        "s"
      ],
      [
        "Ġw",
        "ould"
      ],
      [
        "Ġa",
        "ct"
      ],
      [
        "Ġ",
        "-"
      ],
      [
        "Ġ2",
        "00"
      ],
      [
        "Ġwhe",
        "n"
      ],
      [
        "Ġs",
        "a"
      ],
      [
        "Ġk",
        "n"
      ],
      [
        "Ġo",
        "ver"
      ],
      [
        "Ġne",
        "w"
      ],
      [
        "w",
        "e"
      ],
      [
        "al",
        "ly"
      ],
      [
        "ir",
        "st"
      ],
      [
        "ff",
        "ect"
      ],
      [
        "Ġsu",
        "ch"
      ],
      [
        "Ġre",
        "l"
      ],
      [
        "ment",
        "s"
      ],
      [
        "if",
        "ic"
      ],
      [
        "y",
        "s"
      ],
      [
        "Ġm",
        "ost"
      ],
      [
        "Ġu",
        "nder"
      ],
      [
        "Ġt",
        "ime"
      ],
      [
        "au",
        "se"
      ],
      [
        "Ġan",
        "y"
      ],
      [
        "ĠU",
        "n"
      ],
      [
        "w",
        "n"
      ],
      [
        "Ġc",
        "ol"
      ],
      [
        "l",
        "l"
      ],
      [
        "ĠTh",
        "is"
      ],
      [
        "st",
        "em"
      ],
      [
        "Ġd",
        "iff"
      ],
      [
        "Ġpe",
        "ople"
      ],
      [
        "i",
        "ous"
      ],
      [
        "re",
        "d"
      ],
      [
        "at",
        "ive"
      ],
      [
        "Ġu",
        "se"
      ],
      [
        "Ġa",
        "cc"
      ],
      [
        "Ġb",
        "l"
      ],
      [
        "i",
        "ent"
      ],
      [
        "Ġh",
        "ow"
      ],
      [
        "c",
        "ed"
      ],
      [
        "l",
        "es"
      ],
      [
        ")",
        ","
      ],
      [
        "c",
        "ess"
      ],
      [
        "Ġn",
        "o"
      ],
      [
        "Ġde",
        "velop"
      ],
      [
        "Ġ",
        "if"
      ],
      [
        "Ġinc",
        "lud"
      ],
      [
        "is",
        "s"
      ],
      [
        "Ġa",
        "m"
      ],
      [
        "ri",
        "b"
      ],
      [
        "Ġof",
        "f"
      ],
      [
        "Ġpro",
        "v"
      ],
      [
        "Ġch",
        "ild"
      ],
      [
        "Ġo",
        "b"
      ],
      [
        "Ġsp",
        "ec"
      ],
      [
        "n",
        "ing"
      ],
      [
        "Ġl",
        "ike"
      ],
      [
        "p",
        "le"
      ],
      [
        "Ġ",
        "Y"
      ],
      [
        "Ġth",
        "rough"
      ],
      [
        "er",
        "m"
      ],
      [
        "Ġtw",
        "o"
      ],
      [
        "Ġon",
        "ly"
      ],
      [
        "Ġex",
        "p"
      ],
      [
        "Ġp",
        "h"
      ],
      [
        "ul",
        "ar"
      ],
      [
        "Ġs",
        "ur"
      ],
      [
        "Ġpro",
        "du"
      ],
      [
        "Ġf",
        "irst"
      ],
      [
        "Ġne",
        "ed"
      ],
      [
        "Ġt",
        "r"
      ],
      [
        "os",
        "s"
      ],
      [
        "Ġre",
        "g"
      ],
      [
        "i",
        "ed"
      ],
      [
        "f",
        "ter"
      ],
      [
        "in",
        "t"
      ],
      [
        "o",
        "ok"
      ],
      [
        "er",
        "t"
      ],
      [
        "ĠH",
        "e"
      ],
      [
        "ut",
        "ion"
      ],
      [
        "Ġman",
        "y"
      ],
      [
        "at",
        "ing"
      ],
      [
        "u",
        "c"
      ],
      [
        "o",
        "v"
      ],
      [
        "Ġus",
        "ed"
      ],
      [
        "Ġe",
        "m"
      ],
      [
        "ar",
        "ch"
      ],
      [
        "al",
        "s"
      ],
      [
        "Ġo",
        "ur"
      ],
      [
        "Ġ2",
        "0"
      ],
      [
        "Ġp",
        "r"
      ],
      [
        "ur",
        "ing"
      ],
      [
        "Ġa",
        "c"
      ],
      [
        "i",
        "et"
      ],
      [
        "Ġin",
        "d"
      ],
      [
        "we",
        "en"
      ],
      [
        "rou",
        "nd"
      ],
      [
        "Ġin",
        "ter"
      ],
      [
        "he",
        "n"
      ],
      [
        "a",
        "w"
      ],
      [
        "al",
        "th"
      ],
      [
        "as",
        "ed"
      ],
      [
        "Ġ",
        "4"
      ],
      [
        "Ġsy",
        "stem"
      ],
      [
        "Ġde",
        "c"
      ],
      [
        "ar",
        "k"
      ],
      [
        "Ġp",
        "o"
      ],
      [
        "ic",
        "s"
      ],
      [
        "Ġwh",
        "at"
      ],
      [
        "Ġw",
        "ater"
      ],
      [
        "it",
        "ed"
      ],
      [
        "ot",
        "h"
      ],
      [
        "ow",
        "er"
      ],
      [
        "p",
        "e"
      ],
      [
        "Ġyear",
        "s"
      ],
      [
        "ist",
        "s"
      ],
      [
        "Ġsu",
        "b"
      ],
      [
        "Ġbet",
        "ween"
      ],
      [
        "il",
        "ity"
      ],
      [
        "Ġsh",
        "ould"
      ],
      [
        "Ġad",
        "d"
      ],
      [
        "t",
        "en"
      ],
      [
        "n",
        "e"
      ],
      [
        "Ġin",
        "v"
      ],
      [
        "g",
        "an"
      ],
      [
        "at",
        "h"
      ],
      [
        "g",
        "ra"
      ],
      [
        "Ġc",
        "ould"
      ],
      [
        "if",
        "e"
      ],
      [
        "u",
        "res"
      ],
      [
        "Ġp",
        "ol"
      ],
      [
        "ib",
        "le"
      ],
      [
        "Ġat",
        "t"
      ],
      [
        "et",
        "h"
      ],
      [
        "ol",
        "d"
      ],
      [
        "f",
        "ul"
      ],
      [
        "l",
        "p"
      ],
      [
        "Ġas",
        "s"
      ],
      [
        "e",
        "ver"
      ],
      [
        "is",
        "e"
      ],
      [
        "Ġre",
        "m"
      ],
      [
        "Ġre",
        "se"
      ],
      [
        "c",
        "y"
      ],
      [
        "ro",
        "w"
      ],
      [
        "o",
        "ol"
      ],
      [
        "b",
        "le"
      ],
      [
        "Ġc",
        "ount"
      ],
      [
        "se",
        "l"
      ],
      [
        "f",
        "ore"
      ],
      [
        "Ġhe",
        "lp"
      ],
      [
        ".",
        "."
      ],
      [
        "Ġp",
        "res"
      ],
      [
        "Ġ",
        "5"
      ],
      [
        "in",
        "k"
      ],
      [
        "orm",
        "ation"
      ],
      [
        "is",
        "m"
      ],
      [
        "ant",
        "s"
      ],
      [
        "Ġwhe",
        "re"
      ],
      [
        "olog",
        "y"
      ],
      [
        "ĠA",
        "s"
      ],
      [
        "ere",
        "d"
      ],
      [
        "Ġc",
        "ent"
      ],
      [
        "Ġdis",
        "c"
      ],
      [
        "Ġsu",
        "pp"
      ],
      [
        "u",
        "ch"
      ],
      [
        "I",
        "n"
      ],
      [
        "an",
        "ge"
      ],
      [
        "Ġh",
        "um"
      ],
      [
        "ad",
        "e"
      ],
      [
        "Ġdiff",
        "ere"
      ],
      [
        "Ġf",
        "e"
      ],
      [
        "he",
        "s"
      ],
      [
        "ic",
        "k"
      ],
      [
        "on",
        "t"
      ],
      [
        "Ġn",
        "um"
      ],
      [
        "Ġf",
        "l"
      ],
      [
        "e",
        "x"
      ],
      [
        "Ġw",
        "ell"
      ],
      [
        "c",
        "ent"
      ],
      [
        "mer",
        "ic"
      ],
      [
        "it",
        "s"
      ],
      [
        "f",
        "t"
      ],
      [
        "Ġs",
        "ign"
      ],
      [
        "ur",
        "al"
      ],
      [
        "in",
        "s"
      ],
      [
        "Ġex",
        "am"
      ],
      [
        "ra",
        "ct"
      ],
      [
        "Ġd",
        "et"
      ],
      [
        "Ġth",
        "ose"
      ],
      [
        "id",
        "ent"
      ],
      [
        "o",
        "y"
      ],
      [
        "Ġm",
        "ed"
      ],
      [
        "Ġe",
        "ffect"
      ],
      [
        "Ġh",
        "igh"
      ],
      [
        "il",
        "y"
      ],
      [
        "i",
        "vers"
      ],
      [
        "Ġtr",
        "ans"
      ],
      [
        "g",
        "y"
      ],
      [
        "Ġsa",
        "id"
      ],
      [
        "at",
        "ure"
      ],
      [
        "or",
        "k"
      ],
      [
        "Ġfor",
        "m"
      ],
      [
        "Ġc",
        "all"
      ],
      [
        "Ġe",
        "ar"
      ],
      [
        "in",
        "es"
      ],
      [
        "l",
        "and"
      ],
      [
        "Ġg",
        "o"
      ],
      [
        "Ġs",
        "m"
      ],
      [
        "ce",
        "pt"
      ],
      [
        "ch",
        "n"
      ],
      [
        "Ġre",
        "f"
      ],
      [
        "n",
        "g"
      ],
      [
        ".",
        "\""
      ],
      [
        "Ġf",
        "ound"
      ],
      [
        "ĠP",
        "ro"
      ],
      [
        "Ġ",
        "her"
      ],
      [
        "Ġm",
        "od"
      ],
      [
        "ic",
        "t"
      ],
      [
        "Ġa",
        "fter"
      ],
      [
        "Ġp",
        "ers"
      ],
      [
        "ĠA",
        "meric"
      ],
      [
        "ar",
        "s"
      ],
      [
        "Ġl",
        "ar"
      ],
      [
        "Ġl",
        "oc"
      ],
      [
        "Ġev",
        "en"
      ],
      [
        "over",
        "n"
      ],
      [
        "ual",
        "ly"
      ],
      [
        "v",
        "ent"
      ],
      [
        "as",
        "es"
      ],
      [
        "Ġl",
        "ong"
      ],
      [
        "d",
        "s"
      ],
      [
        "Ġin",
        "st"
      ],
      [
        "Ġimp",
        "ort"
      ],
      [
        "Ġc",
        "ell"
      ],
      [
        "Ġinc",
        "re"
      ],
      [
        "Ġ1",
        "8"
      ],
      [
        "ot",
        "her"
      ],
      [
        "r",
        "an"
      ],
      [
        "Ġf",
        "act"
      ],
      [
        "Ġde",
        "f"
      ],
      [
        "i",
        "ence"
      ],
      [
        "ur",
        "n"
      ],
      [
        "it",
        "t"
      ],
      [
        "Ġex",
        "t"
      ],
      [
        "om",
        "m"
      ],
      [
        "Ġinf",
        "ormation"
      ],
      [
        "Ġb",
        "u"
      ],
      [
        "Ġwor",
        "ld"
      ],
      [
        "er",
        "al"
      ],
      [
        "Ġg",
        "ra"
      ],
      [
        "at",
        "a"
      ],
      [
        "Ġm",
        "ake"
      ],
      [
        "l",
        "ed"
      ],
      [
        "Ġbec",
        "ause"
      ],
      [
        "Ġcomm",
        "un"
      ],
      [
        "Ġ",
        "very"
      ],
      [
        "ru",
        "ct"
      ],
      [
        "w",
        "ard"
      ],
      [
        "Ġr",
        "ight"
      ],
      [
        "e",
        "f"
      ],
      [
        "Ġ",
        "ed"
      ],
      [
        "Ġw",
        "ay"
      ],
      [
        "v",
        "ed"
      ],
      [
        "ol",
        "low"
      ],
      [
        "1",
        "9"
      ],
      [
        "ir",
        "on"
      ],
      [
        "c",
        "k"
      ],
      [
        "Ġm",
        "em"
      ],
      [
        "Ġj",
        "ust"
      ],
      [
        "iv",
        "es"
      ],
      [
        "Ġthe",
        "n"
      ],
      [
        "Ġs",
        "ame"
      ],
      [
        "Ġbe",
        "ing"
      ],
      [
        "ect",
        "ion"
      ],
      [
        "ical",
        "ly"
      ],
      [
        "ĠA",
        "l"
      ],
      [
        "ch",
        "ool"
      ],
      [
        "i",
        "ew"
      ],
      [
        "i",
        "x"
      ],
      [
        "Ġp",
        "ub"
      ],
      [
        "i",
        "o"
      ],
      [
        "T",
        "h"
      ],
      [
        "Ġse",
        "e"
      ],
      [
        "Ġpro",
        "cess"
      ],
      [
        "c",
        "er"
      ],
      [
        "u",
        "es"
      ],
      [
        "Ġg",
        "et"
      ],
      [
        "Ġs",
        "im"
      ],
      [
        "Ġar",
        "t"
      ],
      [
        "Ġkn",
        "ow"
      ],
      [
        "Ġd",
        "ist"
      ],
      [
        "im",
        "es"
      ],
      [
        "Ġex",
        "per"
      ],
      [
        "iz",
        "ed"
      ],
      [
        "Ġc",
        "o"
      ],
      [
        "Ġf",
        "am"
      ],
      [
        "Ġpart",
        "ic"
      ],
      [
        "Ġe",
        "ach"
      ],
      [
        "Ġse",
        "c"
      ],
      [
        "t",
        "y"
      ],
      [
        "Ġres",
        "p"
      ],
      [
        "ak",
        "ing"
      ],
      [
        "rou",
        "p"
      ],
      [
        "c",
        "on"
      ],
      [
        "Ġchild",
        "ren"
      ],
      [
        "ag",
        "es"
      ],
      [
        "Ġa",
        "ut"
      ],
      [
        "Ġm",
        "uch"
      ],
      [
        "Ġhe",
        "alth"
      ],
      [
        "Ġt",
        "est"
      ],
      [
        "Ġp",
        "at"
      ],
      [
        "Ġt",
        "y"
      ],
      [
        "Ġo",
        "cc"
      ],
      [
        "Ġdiffere",
        "nt"
      ],
      [
        "n",
        "ess"
      ],
      [
        "Ġc",
        "ar"
      ],
      [
        "Ġres",
        "ult"
      ],
      [
        "ivers",
        "ity"
      ],
      [
        "Ġc",
        "a"
      ],
      [
        "Ġd",
        "uring"
      ],
      [
        "he",
        "m"
      ],
      [
        "ire",
        "ct"
      ],
      [
        "v",
        "iron"
      ],
      [
        "at",
        "her"
      ],
      [
        "Ġre",
        "qu"
      ],
      [
        "Ġm",
        "on"
      ],
      [
        "Ġ",
        "ke"
      ],
      [
        "Ġ",
        "6"
      ],
      [
        "Ġh",
        "im"
      ],
      [
        "Ġte",
        "chn"
      ],
      [
        "iz",
        "e"
      ],
      [
        "Ġag",
        "ain"
      ],
      [
        "Ġb",
        "ack"
      ],
      [
        "'",
        "t"
      ],
      [
        "Ġs",
        "oc"
      ],
      [
        "Ġf",
        "ollow"
      ],
      [
        "Ġst",
        "ate"
      ],
      [
        "Ġc",
        "or"
      ],
      [
        "ĠA",
        "n"
      ],
      [
        "a",
        "h"
      ],
      [
        "is",
        "hed"
      ],
      [
        "u",
        "nd"
      ],
      [
        "Ġv",
        "ar"
      ],
      [
        "Ġ20",
        "1"
      ],
      [
        "in",
        "ce"
      ],
      [
        "Ġ",
        "ent"
      ],
      [
        "Ġg",
        "overn"
      ],
      [
        "Ġen",
        "d"
      ],
      [
        ",",
        "\""
      ],
      [
        "Ġe",
        "very"
      ],
      [
        "g",
        "et"
      ],
      [
        "ĠW",
        "h"
      ],
      [
        "Ġp",
        "op"
      ],
      [
        "r",
        "al"
      ],
      [
        "ĠF",
        "or"
      ],
      [
        "Ġm",
        "ade"
      ],
      [
        "Ġs",
        "et"
      ],
      [
        "ro",
        "s"
      ],
      [
        "Ġm",
        "in"
      ],
      [
        "t",
        "he"
      ],
      [
        "Ġo",
        "wn"
      ],
      [
        "g",
        "g"
      ],
      [
        "ĠN",
        "ew"
      ],
      [
        "Ġc",
        "ur"
      ],
      [
        "in",
        "ed"
      ],
      [
        "Ġde",
        "p"
      ],
      [
        "Ġimport",
        "ant"
      ],
      [
        "Ġc",
        "re"
      ],
      [
        "Ġapp",
        "ro"
      ],
      [
        "ĠA",
        "r"
      ],
      [
        "Ġdo",
        "es"
      ],
      [
        "and",
        "s"
      ],
      [
        "ĠR",
        "e"
      ],
      [
        ".",
        ","
      ],
      [
        "Ġle",
        "vel"
      ],
      [
        "Ġ",
        "est"
      ],
      [
        "Ġrese",
        "arch"
      ],
      [
        "Ġ",
        "7"
      ],
      [
        "Ġcomp",
        "le"
      ],
      [
        "f",
        "orm"
      ],
      [
        "Ġl",
        "ife"
      ],
      [
        "Ġb",
        "oth"
      ],
      [
        "in",
        "ation"
      ],
      [
        "Ġin",
        "s"
      ],
      [
        "|",
        "|"
      ],
      [
        "Ġsh",
        "ow"
      ],
      [
        "viron",
        "ment"
      ],
      [
        "er",
        "gy"
      ],
      [
        "Ġt",
        "reat"
      ],
      [
        "ro",
        "l"
      ],
      [
        "id",
        "es"
      ],
      [
        "v",
        "en"
      ],
      [
        "Ġf",
        "ind"
      ],
      [
        "ar",
        "m"
      ],
      [
        "ur",
        "y"
      ],
      [
        "Ġd",
        "ata"
      ],
      [
        "Ġpro",
        "ble"
      ],
      [
        "Ġle",
        "ar"
      ],
      [
        "ĠThe",
        "y"
      ],
      [
        "Ġg",
        "roup"
      ],
      [
        "Ġs",
        "he"
      ],
      [
        "ĠI",
        "nd"
      ],
      [
        "Ġs",
        "er"
      ],
      [
        "Ġstud",
        "y"
      ],
      [
        "i",
        "el"
      ],
      [
        "r",
        "on"
      ],
      [
        "Ġor",
        "gan"
      ],
      [
        "e",
        "e"
      ],
      [
        "Ġm",
        "a"
      ],
      [
        "Ġh",
        "ist"
      ],
      [
        "Ġth",
        "ree"
      ],
      [
        "Ġsm",
        "all"
      ],
      [
        "it",
        "al"
      ],
      [
        "Ġpro",
        "t"
      ],
      [
        "ial",
        "ly"
      ],
      [
        "Ġpro",
        "gra"
      ],
      [
        "Ġbe",
        "fore"
      ],
      [
        "ĠâĢ",
        "ĵ"
      ],
      [
        "Ġ19",
        "9"
      ],
      [
        "Ġp",
        "ower"
      ],
      [
        "h",
        "ip"
      ],
      [
        "re",
        "ad"
      ],
      [
        "ut",
        "e"
      ],
      [
        "i",
        "or"
      ],
      [
        "om",
        "en"
      ],
      [
        "Ġn",
        "ow"
      ],
      [
        "Ġact",
        "iv"
      ],
      [
        "x",
        "t"
      ],
      [
        "v",
        "ing"
      ],
      [
        "st",
        "it"
      ],
      [
        "ĠI",
        "f"
      ],
      [
        "Ġm",
        "y"
      ],
      [
        "ĠH",
        "ow"
      ],
      [
        "Ġcont",
        "in"
      ],
      [
        "Ġnum",
        "ber"
      ],
      [
        "ou",
        "n"
      ],
      [
        "Ġre",
        "ad"
      ],
      [
        "i",
        "er"
      ],
      [
        "im",
        "ate"
      ],
      [
        "ĠS",
        "c"
      ],
      [
        "Ġa",
        "v"
      ],
      [
        "an",
        "y"
      ],
      [
        "Ġrep",
        "ort"
      ],
      [
        "t",
        "ing"
      ],
      [
        "Ġg",
        "l"
      ],
      [
        "Ġb",
        "o"
      ],
      [
        "00",
        "0"
      ],
      [
        "Ġof",
        "ten"
      ],
      [
        "ter",
        "s"
      ],
      [
        "Ġhum",
        "an"
      ],
      [
        "Ġdis",
        "e"
      ],
      [
        "Ġc",
        "our"
      ],
      [
        "ĠI",
        "s"
      ],
      [
        "Ġle",
        "ad"
      ],
      [
        "Ġ1",
        "0"
      ],
      [
        "Ġp",
        "oss"
      ],
      [
        ".",
        "âĢĿ"
      ],
      [
        "os",
        "ed"
      ],
      [
        "Ġm",
        "ust"
      ],
      [
        "Ġs",
        "ol"
      ],
      [
        "Ġe",
        "lect"
      ],
      [
        "in",
        "al"
      ],
      [
        "Ġd",
        "id"
      ],
      [
        "od",
        "y"
      ],
      [
        "Ġus",
        "ing"
      ],
      [
        "u",
        "p"
      ],
      [
        "Ġex",
        "pl"
      ],
      [
        "ĠW",
        "e"
      ],
      [
        "Ġper",
        "cent"
      ],
      [
        "Ġd",
        "own"
      ],
      [
        "re",
        "nt"
      ],
      [
        "or",
        "th"
      ],
      [
        "g",
        "en"
      ],
      [
        "are",
        "d"
      ],
      [
        "Ġl",
        "aw"
      ],
      [
        "Ġexam",
        "ple"
      ],
      [
        "r",
        "ing"
      ],
      [
        "Ġpers",
        "on"
      ],
      [
        "us",
        "s"
      ],
      [
        "i",
        "um"
      ],
      [
        "her",
        "s"
      ],
      [
        "ic",
        "es"
      ],
      [
        "Ġg",
        "ood"
      ],
      [
        "Ġv",
        "is"
      ],
      [
        "Ġg",
        "row"
      ],
      [
        "Ġcall",
        "ed"
      ],
      [
        "sel",
        "f"
      ],
      [
        "Ġcon",
        "f"
      ],
      [
        "Ġbe",
        "l"
      ],
      [
        "c",
        "l"
      ],
      [
        "Ġdes",
        "c"
      ],
      [
        "v",
        "es"
      ],
      [
        "a",
        "ir"
      ],
      [
        "Ġs",
        "chool"
      ],
      [
        "ou",
        "th"
      ],
      [
        "Ġth",
        "ough"
      ],
      [
        "ĠUn",
        "iversity"
      ],
      [
        "i",
        "ans"
      ],
      [
        "Ġ",
        "8"
      ],
      [
        "Ġwh",
        "ile"
      ],
      [
        "Ġt",
        "em"
      ],
      [
        "Ġd",
        "irect"
      ],
      [
        "ain",
        "s"
      ],
      [
        "Ġm",
        "et"
      ],
      [
        "iv",
        "id"
      ],
      [
        "a",
        "ve"
      ],
      [
        "Ġre",
        "du"
      ],
      [
        "ĠS",
        "p"
      ],
      [
        "oc",
        "k"
      ],
      [
        "le",
        "ar"
      ],
      [
        "Ġl",
        "ess"
      ],
      [
        "n",
        "ce"
      ],
      [
        "Ġm",
        "ain"
      ],
      [
        "st",
        "and"
      ],
      [
        "Ġcomm",
        "on"
      ],
      [
        "b",
        "ers"
      ],
      [
        "ĠB",
        "ut"
      ],
      [
        "Ġlar",
        "ge"
      ],
      [
        "al",
        "e"
      ],
      [
        "Ġst",
        "r"
      ],
      [
        "Ġpl",
        "an"
      ],
      [
        "âĢ",
        "Ķ"
      ],
      [
        "d",
        "er"
      ],
      [
        "o",
        "h"
      ],
      [
        "Ġcons",
        "id"
      ],
      [
        "ul",
        "ation"
      ],
      [
        "Ġc",
        "ap"
      ],
      [
        "Ġgovern",
        "ment"
      ],
      [
        "d",
        "ay"
      ],
      [
        "Ġg",
        "reat"
      ],
      [
        "Ġs",
        "k"
      ],
      [
        "al",
        "ity"
      ],
      [
        "Ġch",
        "ar"
      ],
      [
        "Ġw",
        "rit"
      ],
      [
        "ĠD",
        "e"
      ],
      [
        "Ġinclud",
        "ing"
      ],
      [
        "t",
        "on"
      ],
      [
        "Ġstud",
        "ents"
      ],
      [
        "Ġdes",
        "ign"
      ],
      [
        "i",
        "qu"
      ],
      [
        "Ġf",
        "un"
      ],
      [
        "our",
        "ces"
      ],
      [
        "Ġre",
        "t"
      ],
      [
        "Ġall",
        "ow"
      ],
      [
        "d",
        "e"
      ],
      [
        "r",
        "ies"
      ],
      [
        "i",
        "ation"
      ],
      [
        "Ġa",
        "round"
      ],
      [
        "Ġst",
        "ill"
      ],
      [
        "Ġsupp",
        "ort"
      ],
      [
        "t",
        "ed"
      ],
      [
        "it",
        "ions"
      ],
      [
        "con",
        "om"
      ],
      [
        "Ġagain",
        "st"
      ],
      [
        "c",
        "om"
      ],
      [
        "ĠC",
        "on"
      ],
      [
        "ill",
        "ion"
      ],
      [
        "or",
        "n"
      ],
      [
        "Ġo",
        "p"
      ],
      [
        "act",
        "er"
      ],
      [
        "Ġgen",
        "er"
      ],
      [
        "Ġob",
        "ject"
      ],
      [
        "Ġen",
        "ergy"
      ],
      [
        "iz",
        "ation"
      ],
      [
        "2",
        "0"
      ],
      [
        "m",
        "an"
      ],
      [
        "r",
        "ist"
      ],
      [
        "Ġs",
        "erv"
      ],
      [
        "ak",
        "es"
      ],
      [
        "r",
        "is"
      ],
      [
        "ĠP",
        "h"
      ],
      [
        "Ġr",
        "is"
      ],
      [
        "n",
        "er"
      ],
      [
        "Ġs",
        "om"
      ],
      [
        "in",
        "c"
      ],
      [
        "Ġcl",
        "ass"
      ],
      [
        "Th",
        "is"
      ],
      [
        "d",
        "ition"
      ],
      [
        "Ġc",
        "are"
      ],
      [
        "g",
        "er"
      ],
      [
        "Ġwith",
        "out"
      ],
      [
        "i",
        "ver"
      ],
      [
        "Ġm",
        "ight"
      ],
      [
        "Ġf",
        "ood"
      ],
      [
        "Ġpl",
        "ace"
      ],
      [
        "ain",
        "ed"
      ],
      [
        "ĠA",
        "nd"
      ],
      [
        "Ġen",
        "vironment"
      ],
      [
        "1",
        "0"
      ],
      [
        "ect",
        "ed"
      ],
      [
        "ou",
        "se"
      ],
      [
        "Ġkn",
        "own"
      ],
      [
        "Ġv",
        "al"
      ],
      [
        "ĠAmeric",
        "an"
      ],
      [
        "Ġad",
        "v"
      ],
      [
        "i",
        "en"
      ],
      [
        "iv",
        "en"
      ],
      [
        "iet",
        "y"
      ],
      [
        "Ġ",
        "'"
      ],
      [
        "pt",
        "ion"
      ],
      [
        "ere",
        "st"
      ],
      [
        "ire",
        "d"
      ],
      [
        "Ġd",
        "ay"
      ],
      [
        "am",
        "p"
      ],
      [
        "Ġt",
        "ake"
      ],
      [
        "Ġpub",
        "lic"
      ],
      [
        "re",
        "en"
      ],
      [
        "ros",
        "s"
      ],
      [
        "Ġe",
        "qu"
      ],
      [
        "Ġl",
        "ook"
      ],
      [
        "ert",
        "ain"
      ],
      [
        "l",
        "ished"
      ],
      [
        "Ġde",
        "m"
      ],
      [
        "Ġ1",
        "5"
      ],
      [
        "Ġp",
        "ress"
      ],
      [
        "ul",
        "l"
      ],
      [
        "Ġan",
        "other"
      ],
      [
        "j",
        "or"
      ],
      [
        "en",
        "se"
      ],
      [
        "ro",
        "p"
      ],
      [
        "m",
        "e"
      ],
      [
        "ord",
        "ing"
      ],
      [
        "Ġw",
        "ar"
      ],
      [
        "w",
        "ay"
      ],
      [
        "Ġm",
        "il"
      ],
      [
        "re",
        "t"
      ],
      [
        "Ġis",
        "s"
      ],
      [
        "Ġs",
        "l"
      ],
      [
        "ĠR",
        "es"
      ],
      [
        "i",
        "od"
      ],
      [
        "as",
        "h"
      ],
      [
        "Ġph",
        "ys"
      ],
      [
        "a",
        "x"
      ],
      [
        "Ġle",
        "g"
      ],
      [
        "Ġg",
        "u"
      ],
      [
        "id",
        "s"
      ],
      [
        "ater",
        "ial"
      ],
      [
        "Ġdevelop",
        "ment"
      ],
      [
        "Ġf",
        "ew"
      ],
      [
        "are",
        "nt"
      ],
      [
        "Ġsc",
        "ient"
      ],
      [
        "Ġwith",
        "in"
      ],
      [
        "ĠS",
        "e"
      ],
      [
        "r",
        "ation"
      ],
      [
        "Ġch",
        "ang"
      ],
      [
        "ĠA",
        "t"
      ],
      [
        "Ġm",
        "ar"
      ],
      [
        "Ġcell",
        "s"
      ],
      [
        "Ġare",
        "a"
      ],
      [
        "Ġqu",
        "est"
      ],
      [
        "in",
        "ing"
      ],
      [
        "Ġ",
        "9"
      ],
      [
        "Ġpres",
        "ent"
      ],
      [
        "W",
        "h"
      ],
      [
        "if",
        "ied"
      ],
      [
        "ĠJ",
        "ew"
      ],
      [
        "iss",
        "ion"
      ],
      [
        "ion",
        "al"
      ],
      [
        "Ġdise",
        "ase"
      ],
      [
        "Ġl",
        "ow"
      ],
      [
        "Ġe",
        "conom"
      ],
      [
        "iv",
        "ing"
      ],
      [
        "ĠThe",
        "re"
      ],
      [
        "Ġb",
        "ody"
      ],
      [
        "in",
        "a"
      ],
      [
        "Ġth",
        "ink"
      ],
      [
        "Ġcont",
        "rol"
      ],
      [
        "ent",
        "ial"
      ],
      [
        "Ġre",
        "st"
      ],
      [
        "Ġsoc",
        "ial"
      ],
      [
        "at",
        "ural"
      ],
      [
        "Ġm",
        "at"
      ],
      [
        "u",
        "se"
      ],
      [
        "b",
        "s"
      ],
      [
        "Ġ",
        "ide"
      ],
      [
        "Ġspec",
        "ies"
      ],
      [
        "Ġed",
        "uc"
      ],
      [
        "Ġocc",
        "ur"
      ],
      [
        "h",
        "or"
      ],
      [
        "Ġe",
        "ff"
      ],
      [
        "Ġl",
        "and"
      ],
      [
        "ĠUn",
        "ited"
      ],
      [
        "Ġst",
        "art"
      ],
      [
        "cc",
        "ess"
      ],
      [
        "t",
        "o"
      ],
      [
        "Ġint",
        "erest"
      ],
      [
        "âĢ",
        "ľ"
      ],
      [
        "f",
        "ace"
      ],
      [
        "Ġs",
        "ays"
      ],
      [
        "ol",
        "ution"
      ],
      [
        "ĠG",
        "od"
      ],
      [
        "Ġh",
        "and"
      ],
      [
        "ĠC",
        "ol"
      ],
      [
        "Ġunder",
        "stand"
      ],
      [
        "Ġp",
        "ract"
      ],
      [
        "g",
        "in"
      ],
      [
        "Ġst",
        "and"
      ],
      [
        "Ġbu",
        "ild"
      ],
      [
        "Ġl",
        "im"
      ],
      [
        "iv",
        "ed"
      ],
      [
        "Ġme",
        "as"
      ],
      [
        "Ġprodu",
        "ct"
      ],
      [
        "ent",
        "ly"
      ],
      [
        "w",
        "w"
      ],
      [
        "Ġma",
        "jor"
      ],
      [
        "iel",
        "d"
      ],
      [
        "l",
        "ish"
      ],
      [
        "he",
        "re"
      ],
      [
        "Ġne",
        "ar"
      ],
      [
        "Ġm",
        "eth"
      ],
      [
        "en",
        "g"
      ],
      [
        "a",
        "z"
      ],
      [
        "ro",
        "du"
      ],
      [
        "Ġca",
        "us"
      ],
      [
        "Ġb",
        "as"
      ],
      [
        "ĠE",
        "n"
      ],
      [
        "olog",
        "ical"
      ],
      [
        "I",
        "t"
      ],
      [
        "w",
        "ork"
      ],
      [
        "Ġt",
        "ri"
      ],
      [
        "l",
        "ess"
      ],
      [
        "Ġbe",
        "h"
      ],
      [
        "Ġpro",
        "ject"
      ],
      [
        "Ġse",
        "ver"
      ],
      [
        "u",
        "ro"
      ],
      [
        "Ġan",
        "t"
      ],
      [
        "ĠCh",
        "rist"
      ],
      [
        "ĠC",
        "ent"
      ],
      [
        "Ġp",
        "ass"
      ],
      [
        "el",
        "s"
      ],
      [
        "Ġinv",
        "ol"
      ],
      [
        "l",
        "ine"
      ],
      [
        "er",
        "n"
      ],
      [
        "Ġo",
        "per"
      ],
      [
        "Ġch",
        "ange"
      ],
      [
        "Ġm",
        "aterial"
      ],
      [
        "Ġbl",
        "ood"
      ],
      [
        "it",
        "ive"
      ],
      [
        "Ġb",
        "ir"
      ],
      [
        "ĠC",
        "omm"
      ],
      [
        "Ġinclud",
        "e"
      ],
      [
        "Ġb",
        "ro"
      ],
      [
        "Ġl",
        "ast"
      ],
      [
        "ot",
        "e"
      ],
      [
        "Ġpro",
        "per"
      ],
      [
        "ĠHow",
        "ever"
      ],
      [
        "os",
        "p"
      ],
      [
        "Ġo",
        "ld"
      ],
      [
        "Ġo",
        "pp"
      ],
      [
        "th",
        "ough"
      ],
      [
        "er",
        "ing"
      ],
      [
        "ar",
        "c"
      ],
      [
        "Ġ1",
        "7"
      ],
      [
        "Ġpo",
        "int"
      ],
      [
        "Ġf",
        "ore"
      ],
      [
        "as",
        "on"
      ],
      [
        "Ġ",
        "ve"
      ],
      [
        "ĠC",
        "an"
      ],
      [
        "og",
        "ra"
      ],
      [
        "at",
        "ic"
      ],
      [
        "Ġm",
        "ove"
      ],
      [
        "Ġl",
        "ater"
      ],
      [
        "Ġw",
        "omen"
      ],
      [
        "ĠThe",
        "se"
      ],
      [
        "Ġcur",
        "rent"
      ],
      [
        "Ġe",
        "as"
      ],
      [
        ",",
        "âĢĿ"
      ],
      [
        "Ġ",
        "ident"
      ],
      [
        "es",
        "p"
      ],
      [
        "Ġd",
        "on"
      ],
      [
        "Ġcon",
        "st"
      ],
      [
        "Ġear",
        "ly"
      ],
      [
        "n",
        "ed"
      ],
      [
        "ard",
        "s"
      ],
      [
        "Ġloc",
        "al"
      ],
      [
        "Ġbel",
        "ie"
      ],
      [
        "ivid",
        "ual"
      ],
      [
        "at",
        "or"
      ],
      [
        "Ġan",
        "im"
      ],
      [
        "tern",
        "ational"
      ],
      [
        "Ġcount",
        "ry"
      ],
      [
        "Ġl",
        "ight"
      ],
      [
        "u",
        "g"
      ],
      [
        "Ġ",
        "["
      ],
      [
        "ĠSt",
        "ates"
      ],
      [
        "Ġprogra",
        "m"
      ],
      [
        "Ġfam",
        "ily"
      ],
      [
        "m",
        "ed"
      ],
      [
        "Ġu",
        "nt"
      ],
      [
        "Ġprov",
        "ide"
      ],
      [
        "Ġp",
        "ot"
      ],
      [
        "Ġe",
        "t"
      ],
      [
        "Ġb",
        "re"
      ],
      [
        "Ġe",
        "le"
      ],
      [
        "om",
        "s"
      ],
      [
        "if",
        "y"
      ],
      [
        "..",
        "."
      ],
      [
        "al",
        "k"
      ],
      [
        "Ġadd",
        "ition"
      ],
      [
        "c",
        "ing"
      ],
      [
        "Ġs",
        "ay"
      ],
      [
        "Ġty",
        "p"
      ],
      [
        "our",
        "ce"
      ],
      [
        "Ġen",
        "g"
      ],
      [
        "Ġtreat",
        "ment"
      ],
      [
        "Ġm",
        "us"
      ],
      [
        "Ġpartic",
        "ular"
      ],
      [
        "er",
        "c"
      ],
      [
        "pl",
        "es"
      ],
      [
        "Ġdet",
        "erm"
      ],
      [
        "et",
        "s"
      ],
      [
        "ra",
        "in"
      ],
      [
        "res",
        "ent"
      ],
      [
        "Ġam",
        "ong"
      ],
      [
        "Ġsever",
        "al"
      ],
      [
        "is",
        "ion"
      ],
      [
        "Ġsec",
        "ond"
      ],
      [
        "pl",
        "oy"
      ],
      [
        "Ġs",
        "it"
      ],
      [
        "ĠA",
        "d"
      ],
      [
        "o",
        "id"
      ],
      [
        "w",
        "are"
      ],
      [
        "Ġare",
        "as"
      ],
      [
        "e",
        "g"
      ],
      [
        "p",
        "ar"
      ],
      [
        "Ġf",
        "our"
      ],
      [
        "ang",
        "u"
      ],
      [
        "p",
        "ect"
      ],
      [
        "am",
        "es"
      ],
      [
        "Ġ",
        "&"
      ],
      [
        "ĠE",
        "ng"
      ],
      [
        "Ġinf",
        "l"
      ],
      [
        "ĠN",
        "ational"
      ],
      [
        "Ġt",
        "re"
      ],
      [
        "Ġde",
        "v"
      ],
      [
        "o",
        "le"
      ],
      [
        "Ġc",
        "ult"
      ],
      [
        "id",
        "ence"
      ],
      [
        "Ġto",
        "o"
      ],
      [
        "Ġor",
        "ig"
      ],
      [
        "ent",
        "ion"
      ],
      [
        "Ġper",
        "form"
      ],
      [
        "end",
        "ed"
      ],
      [
        "Ġav",
        "ail"
      ],
      [
        "Ġpro",
        "f"
      ],
      [
        "Ġp",
        "ar"
      ],
      [
        "Ġm",
        "ark"
      ],
      [
        "Ġh",
        "ig"
      ],
      [
        "Ġfollow",
        "ing"
      ],
      [
        "Ġh",
        "y"
      ],
      [
        "Ġmeth",
        "od"
      ],
      [
        "1",
        "2"
      ],
      [
        "Ġhe",
        "re"
      ],
      [
        "Ġr",
        "un"
      ],
      [
        "o",
        "f"
      ],
      [
        "Ġc",
        "ertain"
      ],
      [
        "at",
        "t"
      ],
      [
        "Ġh",
        "ome"
      ],
      [
        "Ġv",
        "iew"
      ],
      [
        "Ġsp",
        "e"
      ],
      [
        "Ġ",
        "Z"
      ],
      [
        "Ġn",
        "ame"
      ],
      [
        "Ġpro",
        "p"
      ],
      [
        "Ġf",
        "re"
      ],
      [
        "Ġind",
        "ividual"
      ],
      [
        "Ġb",
        "i"
      ],
      [
        "Ġsu",
        "ccess"
      ],
      [
        "ĠC",
        "l"
      ],
      [
        "Ġt",
        "er"
      ],
      [
        "Ġa",
        "ffect"
      ],
      [
        "Ġin",
        "du"
      ],
      [
        "ent",
        "al"
      ],
      [
        "ap",
        "e"
      ],
      [
        "Ġan",
        "al"
      ],
      [
        "Ġpl",
        "ant"
      ],
      [
        "1",
        "8"
      ],
      [
        "Ġpol",
        "it"
      ],
[...]
